[UNK]
[SEP]
[CLS]
[PAD]
[MASK]
!
"
#
$
%
&
'
(
)
*
+
,
-
.
/
0
1
2
3
4
5
6
7
8
9
:
;
<
=
>
?
@
[
\
]
^
_
`
a
b
c
d
e
f
g
h
i
j
k
l
m
n
o
p
q
r
s
t
u
v
w
x
y
z
{
|
}
~
¡
¢
£
¤
¥
¦
§
¨
©
ª
«
¬
®
¯
°
±
²
³
´
µ
¶
·
¸
¹
º
»
¼
½
¾
¿
×
ß
æ
ð
÷
ø
þ
đ
ħ
ı
ĳ
ĸ
ł
ŋ
œ
ƍ
ƒ
ƛ
ƞ
ƥ
ƴ
ƶ
ǀ
ǁ
ǃ
ǆ
ǝ
ȝ
ȡ
ȥ
ɑ
ə
ɛ
ɣ
ɤ
ɩ
ɭ
ɳ
ɵ
ɷ
ɸ
ʃ
ʋ
ʌ
ʎ
ʟ
ʹ
ʺ
ʼ
ʿ
˂
˃
˄
˅
ˆ
ˇ
ˈ
ˉ
ˊ
ˑ
˖
˗
˘
˙
˚
˛
˜
˝
ˣ
˭
ͽ
΄
α
β
γ
δ
ε
ζ
η
θ
ι
κ
λ
μ
ν
ξ
ο
π
ρ
ς
σ
τ
υ
φ
χ
ψ
ω
ϑ
ϒ
ϕ
ϖ
ϡ
ϣ
ϭ
ϰ
ϱ
ϲ
ϵ
а
б
в
г
д
е
ж
з
и
к
л
м
н
о
п
р
с
т
у
ф
х
ц
ч
ш
ы
э
ю
я
є
і
њ
ћ
ѡ
ѯ
ѱ
ѳ
ѵ
ґ
ң
һ
ӏ
ә
ө
ԍ
ԑ
ԣ
ԧ
՛
՜
հ
փ
׀
׃
׳
״
،
ذ
٠
٧
ܗ
ݡ
ޱ
߄
ߎ
ߕ
ߗ
ߚ
ߣ
߿
ࠄ
࡯
ࡴ
ࡼ
ࣙ
न
ह
ঞ
ঠ
ড
ব
৥
০
৿
੠
ડ
೎
೼
෎
๲
໻
ᄺ
ᅮ
ᇍ
ᇣ
ዄ
ᑚ
ᑨ
ᑺ
ᔎ
ᔧ
ᔶ
ᕅ
ᕘ
ᕫ
ᖂ
ᖚ
ᗕ
ᗻ
ᡔ
ᡫ
ᢝ
ᦤ
ᨬ
ᬜ
᭄
ᯊ
ᯢ
ᰒ
᱊
ᴃ
ᴤ
ᴦ
ᴼ
ᵒ
ᵘ
ᵡ
ᵤ
ᵰ
ᵱ
᾽
᾿
‐
‑
‒
–
—
―
‖
‘
’
‚
“
”
„
‟
†
‡
•
․
‥
…
‧
‰
′
″
‴
‹
›
※
‾
⁃
⁄
⁎
⁓
⁗
⁰
⁴
⁵
⁺
⁻
₀
₁
₂
₃
₄
₅
₆
₇
ₒ
€
⃞
⃟
⃵
ℂ
℃
ℇ
ℋ
ℍ
ℎ
ℏ
ℐ
ℑ
ℒ
ℓ
ℕ
№
℘
ℙ
ℚ
ℛ
ℜ
ℝ
™
ℬ
℮
ℰ
ℱ
ℳ
ℵ
ℶ
ⅆ
ⅇ
⅓
⅔
⅛
⅜
ⅰ
ⅱ
ⅲ
ⅳ
ⅴ
ⅵ
ⅶ
ⅷ
ⅸ
ⅹ
ⅻ
←
↑
→
↓
↔
↕
↗
↘
↠
↦
↧
↪
↭
↼
⇀
⇄
⇆
⇋
⇌
⇐
⇑
⇒
⇓
⇔
⇛
⇢
⇣
⇨
∀
∁
∂
∃
∅
∆
∇
∈
∊
∋
∏
∑
−
∓
∕
∖
∗
∘
∙
√
∝
∞
∠
∢
∣
∥
∧
∨
∩
∪
∫
∬
∭
∮
∯
∴
∶
∷
∼
∽
≂
≃
≅
≈
≊
≌
≐
≑
≒
≔
≕
≙
≜
≡
≤
≥
≦
≧
≪
≫
≲
≳
≶
≺
≻
≿
⊂
⊃
⊆
⊇
⊓
⊕
⊖
⊗
⊘
⊙
⊝
⊡
⊢
⊤
⊥
⊺
⊿
⋀
⋂
⋃
⋄
⋅
⋆
⋍
⋕
⋟
⋮
⋯
⋱
⌀
⌈
⌉
⌊
⌋
⌕
⌢
⌣
⍴
⍺
⎛
⎜
⎝
⎞
⎟
⎠
⎧
⎨
⎩
⎪
⎾
⏟
⏽
␣
①
②
③
④
⑤
⑥
⑦
⑧
⑨
⑩
⑪
⑫
⒊
ⓐ
ⓑ
ⓒ
ⓓ
ⓗ
ⓡ
ⓨ
─
│
┄
┉
┬
┴
═
║
╱
╲
╳
▒
▓
■
□
▪
▭
▲
△
▴
▵
▶
►
▼
▽
▾
▿
◆
◇
◊
○
●
◦
★
☆
☐
☒
♠
♢
♣
♥
♦
♯
⛁
✓
✕
❑
❖
❨
❶
❷
❸
➀
➁
➂
➋
➔
➢
➣
⟦
⟧
⟨
⟩
⟵
⟶
⟷
⟹
⟺
⢊
⤳
⥄
⥛
⦀
⧚
⧸
⧹
⨂
⨉
⨍
⨯
⩽
⩾
⪅
⪆
⪕
⪝
⪡
⪢
⪯
⫫
⫳
⬄
⬅
ⱘ
ⳉ
ⳍ
ⴔ
⸱
⿃
⿟
⿲
⿼
⿿
、
。
〈
〉
《
》
「
〚
〛
〞
お
゜
・
ㆍ
㉦
㋏
㎛
㎡
㑻
㒘
㒚
㒛
㒣
㒧
㗠
㛑
㧙
㸼
㽕
㾖
䆄
䆡
䆩
䋼
䎱
䖛
䗮
䗳
䞡
䞣
䞥
䬂
䬕
䭓
䯈
䰏
䰡
䱣
䴲
一
世
东
中
为
丽
乘
了
于
云
亭
以
件
优
伟
但
作
偀
偠
催
光
入
关
兴
具
军
冯
出
刀
切
刘
刚
利
到
剂
削
力
加
单
卫
参
及
取
变
可
史
叶
号
合
向
和
响
器
回
因
国
在
型
基
增
备
复
奎
孙
学
定
宝
对
小
少
工
差
已
平
应
度
张
强
形
彬
影
很
得
志
忠
性
成
才
抽
拉
损
换
提
效
数
文
料
新
无
明
春
是
显
晶
有
本
朱
李
材
条
杨
杰
松
构
林
果
栋
梁
棒
模
此
武
永
沪
法
泰
洪
海
涛
温
潘
热
焱
燕
片
特
状
率
玉
王
生
用
的
相
研
磨
祁
稳
究
端
米
类
粉
粒
素
纳
组
细
结
羊
肖
胡
能
臣
范
荣
获
著
董
蔡
行
表
被
要
角
贵
赵
超
较
过
进
选
通
速
郭
金
铜
锰
闫
陈
随
韩
颗
马
验
高
黄
龙
ꞌ
ꮉ
ﬀ
ﬁ
ﬂ
ﬃ
﬩
︷
︸
﹤
﹥
＂
＃
％
＆
＇
（
）
＋
，
－
：
；
＜
＝
＞
［
］
ｈ
ｍ
ｗ
｜
～
･
ﾀ
ﾃ
ﾈ
ﾒ
ﾓ
ﾔ
ﾰ
ﾱ
ﾼ
ￂ
ￎ
ￏ
￢
𝜀
𝜃
𝜖
##c
##f
##1
##e
##7
##4
##8
##a
##9
##5
##6
##b
##3
##d
##2
##x
##0
##p
##g
##m
##t
##l
##n
##h
##r
##u
##k
##s
##o
##i
##w
##y
##€
##æ
##œ
##¯
##¹
##z
##v
##−
##j
##¨
##ß
##¥
##¸
##⋅
##q
##™
##®
##´
##×
##¼
##±
##β
##α
##∝
##ω
##ˆ
##∙
##δ
##∗
##ε
##→
##⿿
##σ
##⩾
##ξ
##£
##¢
##°
##π
##м
##о
##═
##φ
##≤
##©
##γ
##½
##ª
##ɛ
##þ
##ƒ
##↔
##³
##⇔
##∞
##º
##˜
##θ
##∂
##÷
##ℏ
##≈
##ˊ
##∈
##ı
##¬
##∇
##⩽
##ι
##в
##¾
##з
##≥
##²
##¦
##¤
##∑
##е
##ð
##⇨
##µ
##˗
##ν
##∓
##∼
##μ
##ψ
##н
##κ
##ρ
##≃
##ο
##і
##с
##а
##λ
##д
##τ
##ø
##ꮉ
##⿟
##ᡔ
##ᴃ
##お
##ˈ
##η
##∕
##ʼ
##√
##˝
##≡
##∫
##ⅱ
##ⱘ
##п
##⊂
##≫
##～
##˚
##≔
##ζ
##ℓ
##ϕ
##∘
##∣
##х
##↑
##◦
##ⅹ
##∥
##ϭ
##˙
##⋯
##ߣ
##↓
##＞
##℃
##≿
##⁰
##₂
##╳
##и
##ϑ
##ы
##゜
##∖
##≪
##⁺
##△
##□
##ﬃ
##○
##∧
##υ
##χ
##⧹
##ɵ
##ϵ
##᭄
##ﬂ
##≅
##ʹ
##ᗕ
##ݡ
##▒
##≦
##─
##≧
##⇋
##ł
##✕
##к
##₃
##ﬁ
##ǀ
##⇄
##⇒
##ς
##р
##я
##ж
##ˑ
##΄
##⁄
##①
##⊥
##␣
##л
##г
##ħ
##⁻
##ƞ
##￢
##ﾀ
##ﾓ
##ᵒ
##ᄺ
##ϣ
##║
##⁴
##т
##ﬀ
##♯
##⊆
##⊗
##ﾱ
##ⅲ
##ϲ
##੠
##₅
##ʺ
##đ
##∅
##๲
##ࡴ
##ˉ
##⇌
##▵
##ⅳ
##ⅰ
##∊
##˅
##＜
##∪
##ⓡ
##˛
##ʋ
##᾽
##⪡
##➢
##෎
##ԧ
##ө
##│
##ℳ
##∶
##ˇ
##∽
##ꞌ
##₀
##②
##③
##ℝ
##ᖂ
##˂
##ǁ
##ɑ
##˭
##ф
##ⳍ
##ᬜ
##ᦤ
##࡯
##ᗻ
##ᇍ
##⁵
##ш
##⊤
##∩
##▪
##ˣ
##˖
##ᔧ
##ᢝ
##ԍ
##ᑨ
##ব
##೼
##⊃
##б
##ю
##ﾃ
##ᅮ
##▴
##⪢
##є
##⃵
##ᵱ
##᱊
##ঠ
##˃
##ह
##ঞ
##≲
##ǃ
##≳
##₆
##₄
##ⅴ
##←
##≒
##ℬ
##⑤
##ѡ
##⌕
##↘
##④
##߄
##⇆
##★
##ϱ
##ѳ
##ϖ
##໻
##⊖
##⫫
##ዄ
##⏽
##ᑺ
##ң
##у
##ϒ
##ᔎ
##ϡ
##˄
##ﾼ
##ￎ
##ﾔ
##℮
##⊓
##ₒ
##ﾈ
##ﾒ
##ʌ
##ǆ
##ц
##⿼
##ч
##ϰ
##ࠄ
##⋱
##⋮
##⧸
##ћ
##ࣙ
##৿
##⅓
##┴
##ƴ
##ড
##⒊
##⍺
##☆
##∷
##ᰒ
##∆
##➔
##ℒ
##ᯊ
##э
##∀
##ᕫ
##ߚ
##ⓨ
##◊
##＋
##ᔶ
##⢊
##᾿
##⋃
##ɸ
##ʿ
##№
##ℋ
##٠
##⌢
##㎡
##ᕅ
##ડ
##✓
##⅔
##⎟
##⊿
##ﾰ
##հ
##ᡫ
##߿
##⇐
##↠
##ʃ
##һ
##≺
##˘
##⛁
##೎
##＝
##ⳉ
##ᕘ
##●
##ܗ
##⨯
##⟹
##∮
##℘
##ࡼ
##ℎ
##𝜀
##⪆
##∏
##㋏
##⿃
##⎪
##▾
##ߕ
##⋀
##∁
##₁
##ŋ
##ѯ
##ￂ
##ㆍ
##⎞
##㉦
##⑥
##ߗ
##⃟
##⋕
##▓
##ƍ
##⪕
##⪯
##ԑ
##ĸ
##ⅆ
##↗
##∠
##⌣
##⊙
##ذ
##⊡
##⅛
##ѱ
##њ
##ѵ
##㎛
##न
##ɣ
##⊕
##ᴼ
##ɩ
##₇
##⋆
##ߎ
##ə
##⟶
##≻
##৥
##ޱ
##ᴤ
##⫳
##⌀
##﹥
##↦
##♦
##ⅵ
##ℵ
##ɷ
##ᵤ
##𝜃
##⇀
##ɳ
##ｗ
##ｈ
##⎠
##⤳
##ℑ
th
the
##er
##ti
##on
##re
##in
##en
##ed
##es
of
in
##al
##at
##nd
##tion
##or
##as
and
##ro
##it
##an
##ic
##ar
##ec
##ing
to
##ent
##is
##ation
##mp
##el
##ac
al
##tr
co
##ig
##le
##ure
is
for
##lo
##ter
##ur
con
##si
##ol
##uc
be
##ow
at
##ul
##th
##ith
with
##ly
##tic
##ys
st
##id
##ou
as
re
##ain
##im
##il
##if
pro
##ve
##ce
de
##ng
##ts
##um
wh
ex
sh
on
that
by
##ag
##res
##ere
##os
are
res
allo
an
##ity
ph
##ase
##om
was
comp
##am
fig
te
##00
##ated
##igh
##per
##ate
##ted
##ting
me
##od
##us
##ature
##ab
##rom
##ment
sp
##ot
##erature
##tal
##iz
were
str
##ad
dis
##ture
temp
ch
temperature
##ess
##ver
##bs
from
##ib
cr
##sion
su
el
##ect
##ich
show
##ge
##em
inc
this
##qu
high
##iff
##pp
gr
us
diff
##les
or
pre
##ial
par
##ay
ac
##ical
##amp
##se
##ir
##ap
phase
en
##ore
##ace
##ut
##ff
which
##orm
##ucture
mat
##tiv
can
sol
##der
tr
it
incre
##di
samp
##ch
inter
##ence
##ectr
##op
alloy
##ne
##ue
cont
##duc
alloys
##ely
##ution
##ine
##ak
##form
fe
##ous
##ip
se
##ound
form
##sition
##ations
##ant
##ther
##st
mic
resul
##ved
##action
micro
app
##able
##ri
10
##face
pres
##oc
ha
ni
##ystal
ad
##ding
##ens
val
##ance
sur
tran
##are
##gy
mater
##ati
##ame
##age
int
##ates
material
##mal
##ell
°c
##ating
ox
##ite
eff
##ties
pl
di
##ases
we
##gen
##ech
mag
ne
ti
##ary
grain
per
mod
cu
cor
low
he
structure
##ased
differ
##vi
si
##ide
##ong
bet
##osition
proc
imp
sc
obs
surface
have
##and
##ree
rel
not
##orp
##dition
obser
ab
##ies
than
##str
##so
ev
##ves
##ectro
##tain
mg
##tial
am
dec
dep
ener
##lu
crystal
has
shown
samples
li
##pec
##we
electr
tw
ob
ind
##ard
also
ag
##ress
##ange
##tively
using
##end
process
##ween
between
results
magne
proper
cal
nan
these
un
conc
af
been
##ments
content
rep
pe
hy
##nt
meas
##act
partic
##ach
##low
##rou
energy
##est
und
stu
cur
##ific
electro
trans
##ally
##ium
##ility
##ize
le
measure
##eld
observed
##uring
spec
after
##lic
exper
properties
##ack
##ist
##uld
##iment
there
atom
##gh
under
metal
##ayer
##pon
##trib
fr
no
##ared
ther
##ient
##tive
##ome
experiment
##echan
car
##ill
##ameter
peak
##uch
char
different
##ons
##yst
##ized
obtain
prec
calc
##ight
anal
mechan
hyd
used
due
##50
two
stress
##formation
##ness
more
during
##ction
20
decre
##cc
sample
##enc
##ied
strain
##ign
acc
size
im
##row
##de
layer
rate
##ear
tim
ma
##ms
pow
microstr
##un
subs
##ystem
po
et
system
ref
fil
##out
##ork
shows
sim
materials
##yp
equ
##ield
##vel
##ensity
exp
##gr
present
respec
##ensi
##ast
calcul
higher
solid
where
reg
qu
##ang
zn
##sc
lar
##ined
all
11
typ
composition
bo
solution
respectively
red
com
##aus
##entr
##tical
##ues
##ond
rec
obtained
ele
##yn
based
##ipit
##ari
##ization
12
indic
mo
sec
how
meth
##ick
precipit
hydro
##led
nm
##ass
stre
##ort
##cr
values
vol
grow
magnetic
addition
##ever
parameter
increase
tre
min
##ost
however
##atter
electron
ar
microstructure
concentr
found
work
order
mn
effect
method
formation
other
des
dat
##tivity
into
so
##orph
model
##emical
##anc
both
fur
##ile
when
##ha
##ors
smal
##ngth
strength
perform
bec
analys
time
##orted
value
##ps
##fore
such
##ion
oxid
##olo
powder
small
sin
data
pr
vari
##ers
##acter
lat
##ites
one
cy
##−1
super
##asing
reduc
mm
particles
phases
##o2
table
19
pol
range
##tice
character
##ential
ass
##ble
beha
##ollow
thermal
cons
their
##tig
coating
lo
##tim
inves
##xim
behavi
##astic
field
##all
investig
prep
specim
experimental
##ability
##ular
##loc
sign
dire
op
sn
compos
##ven
follow
sl
density
bound
conduc
100
##ative
##usion
diffr
15
produc
cyc
deter
analysis
band
hard
##adi
reaction
temperatures
##10
further
##ds
hydrogen
##ie
##respon
ste
carb
##ix
##ail
correspon
occ
##ected
ver
##tit
ro
zr
lower
but
concentration
only
its
##me
condition
well
corro
mol
##dy
##tribution
determ
##ll
growth
fin
##umin
##amic
main
##our
##ould
##aph
studi
##ural
lattice
increasing
##rix
##ening
matrix
reported
abs
effec
about
##scop
crack
##ph
then
study
spectr
transition
##ilar
compound
ir
cm
mechanical
cap
disc
const
sem
atoms
fir
##hed
##ency
heat
def
##umb
##mo
##fer
dop
##ord
##ause
calculated
similar
##now
disloc
##aw
deformation
##orption
##neal
first
##ia
depend
##ener
em
out
##hib
corrosion
anneal
##te
gi
supp
##rd
up
##ose
may
##rop
state
parameters
##uct
press
over
diffraction
tes
o3
crystall
##ct
resist
##red
gener
##ited
therefore
##vious
##unction
type
##ume
measured
##ater
while
##ides
consi
##ough
consider
##20
##11
same
##ents
signific
thick
##icient
200
mel
cl
pot
could
xrd
oxide
##ten
nb
det
rati
loc
##ni
large
some
##up
##ub
fact
significant
tech
wt
##ning
13
increases
impro
image
##uted
30
diffusion
compared
treat
eu
##ology
ter
ini
volume
each
go
##pa
exc
peaks
three
resistance
mix
##olution
because
gl
##ath
bi
##round
occur
line
exhib
very
##rent
es
contain
thus
appro
cell
syn
##ove
lead
prepared
oxidation
##uctural
plan
function
chemical
grains
25
behavior
sing
##one
##ke
##ount
##rough
above
mechanis
patter
phot
numb
pattern
conf
poin
region
ke
ray
films
potential
μm
14
constant
50
cer
pressure
second
comple
pos
##12
##fac
gif
single
inf
br
##ded
##ission
film
increased
current
formed
result
##electr
ions
cool
substr
ratio
direction
capac
##art
##fficient
morph
##try
##eng
alumin
dr
applic
elements
##roduc
##thes
interface
au
##ording
will
cle
##ii
##ual
through
number
##tin
fre
la
##ogen
prop
##25
case
corresponding
fer
##other
liqu
ge
aver
load
##cs
treatment
rela
measurements
##o3
electrode
pa
##mon
according
##omp
carri
non
glass
most
distribution
fraction
discus
oxy
conditions
seen
change
man
precipitates
maxim
ion
liquid
thickness
##velop
section
##ger
##ination
sm
decrease
performed
room
##sible
specimens
pure
synthes
##23
16
ca
develop
##lied
compar
##13
oxygen
along
##ss
carbon
mean
##ving
##ification
##til
##ystall
compounds
gre
##arly
##ently
##tributed
##tics
introduc
strong
area
##ute
##osph
##electric
average
##itu
##az
chang
frequ
they
shap
##ges
conclu
mill
##ection
##tt
determined
curves
ce
##aries
##ft
level
##ling
bel
##eous
##atal
spectra
##ene
coe
##atic
radi
tak
simul
##ages
##its
element
nuc
##ength
##73
maximum
applied
ed
##crib
##sive
given
eq
vac
microscop
amount
frac
like
nucle
sinter
initial
prov
##16
transformation
enh
##pl
compon
##graph
do
pd
fracture
##earch
previous
those
##ensile
clo
characteris
tensile
our
within
sug
##tif
scan
research
rem
presence
##pt
induc
sel
18
##ym
following
investigated
##over
influ
dislocation
good
mul
magn
annealing
##den
thin
##sions
water
##tric
amorph
##ory
ga
##18
substrate
coefficient
bin
00
##loy
##agne
larger
##15
sub
studied
scal
import
cree
boundaries
dist
creep
##ynamic
lim
orient
inclu
##30
see
pred
mechanism
absorption
interaction
hardness
contro
long
should
##et
activ
##chemical
composite
morphology
doped
##60
since
grad
cooling
sti
test
40
particle
##ually
free
amorphous
boundary
s3
##val
atomic
col
##14
conductivity
##ark
##osed
##sed
mpa
bul
point
decreases
related
o4
key
much
plastic
extr
sci
know
tem
stability
##her
structures
gas
repres
local
emission
structural
##fe
performance
less
##omogen
spin
##ately
##ified
##ric
99
frequency
ser
reve
reveal
comb
flow
##nal
##ful
showed
##ays
nanop
##ross
ext
effects
17
carried
bulk
various
describ
ang
new
bond
mon
rich
##rystall
##med
##ects
##niqu
diss
techniqu
24
would
sil
intensity
specimen
pt
powders
##oss
around
##arge
htt
charge
zno
300
ceramic
important
##ities
electrochemical
##co
total
ax
nit
sr
nanoc
60
199
studies
systems
store
reduction
containing
approxim
therm
##ible
dom
capacity
##faces
difference
diameter
heating
##17
presented
las
sugges
##80
grou
wa
superal
##reg
confir
wid
##gue
plo
##bic
por
##ma
predic
##ational
##ectic
nd
##qui
attributed
fati
##gies
##onal
##ade
tests
optical
analy
typical
caus
##ife
indicates
sites
er
##agnetic
fatigue
ins
https
nano
vis
##bility
tio2
##know
cent
##tiz
displ
##mer
##go
##av
bl
if
shape
plane
##artic
improve
##40
##ants
appear
patterns
yield
##irc
bas
##19
disper
control
##aws
without
steel
iden
contr
changes
##ished
air
inde
below
evolution
respon
sever
corre
electrical
laser
twin
shear
substit
na
##ward
length
elastic
influence
smaller
homogen
##tional
pii
prim
pur
cast
##ason
introduction
##ences
ucs
composites
mart
cut
flu
eut
##oci
ta
##hedr
amaz
prod
fu
amazon
amazonaws
figure
coatings
##tinu
##ions
scale
##ilib
nanopartic
west
acknow
acknowled
specific
graph
lit
gd
position
considered
##ably
##ching
##aration
melting
applications
##ension
depos
near
##ustr
experiments
curve
solidification
equilib
detail
fit
fl
##ram
##ole
##br
several
known
slight
##ish
al2
aff
even
##icon
modul
significantly
##ison
use
sch
loss
##o4
##inc
estim
neg
##own
##ines
requi
light
possible
precipitation
mainly
##ickel
layers
s2
h2
nickel
kine
here
power
dim
hot
reach
polar
auth
wear
##70
bar
##oid
consist
expl
disch
equilibri
complex
states
dislocations
part
scanning
##ise
##vic
zone
relatively
keyw
equation
dependence
ear
compositions
##uster
ul
transfer
rates
##uration
mass
shif
##nary
##isted
refer
ful
refl
comparison
##to
milling
nanoparticles
effective
keyword
compres
##ropy
cross
direct
before
life
factor
##alu
eutectic
observ
##38
##tization
##idual
demon
four
demonstr
##ode
stable
av
multi
discussion
evalu
agree
annealed
##pected
close
22
prob
gap
spectro
emp
ach
##greg
metallic
500
##inal
slip
nucleation
##tallic
induced
mixture
##agonal
electroly
achie
sb
resulting
techn
phys
stand
times
deposition
electronic
analyz
jp
any
associ
indicating
##anced
reduced
cluster
##ymme
##hip
continu
##ust
regions
alth
although
cri
linear
##ining
images
uni
sep
science
jo
dend
many
cop
vacanc
tit
fab
##oun
soft
relations
down
tex
remain
##orb
##des
##asi
##−x
equilibrium
defects
fabric
metals
prof
##ox
sintering
expected
mis
moreover
orig
##cp
##radi
##iform
activation
step
##ty
hydr
##equ
cm−1
decreased
volt
quen
relative
dielectric
partial
bro
400
catal
cycles
##metallic
identif
##ically
crystalline
sum
##anium
site
paper
poly
angle
variation
orientation
described
discharge
rol
magnetization
stage
nanos
critical
feature
ii
pb
doping
intermetallic
35
hardening
clearly
rap
##75
contribution
binary
uniform
hand
proced
80
rapid
mach
ln
alloying
##ov
duc
oh
associated
had
##vers
axis
obvious
##most
melt
##h2
##ibr
05
methods
diag
29
##ially
cycle
treated
ru
irradi
##izes
##ahedr
made
better
minim
agreement
loading
exam
atm
ternary
s00
aging
approach
1000
spe
fine
##li
env
tb
set
microscopy
primary
fcc
##yl
ads
23
##wh
coar
aluminum
##olved
calculations
diagram
45
##iron
quan
design
##ched
relax
spectroscop
technique
ill
##ta
##tle
coup
represent
explain
##ances
standard
ml
base
environ
##64
weak
components
oper
surfaces
thermod
##cence
synthesis
##ici
plot
relationship
examp
group
s0
##app
occurs
synthesized
tetr
processing
33
reason
leads
still
need
##he
prom
copper
##ind
equi
spectrum
evid
##rite
10−
microstructures
exhibit
processes
##af
indicated
procedure
almost
75
deposited
isother
600
authors
phen
##ner
mak
atmosph
characteristics
eds
subsequ
speed
phosph
modulus
optim
produced
simp
conclusions
hf
##tan
unit
800
##romagnetic
##cept
anis
developed
##au
28
##ina
##°c
exist
correl
weight
norm
tool
anisot
figs
prot
hol
cubic
particular
approximately
slightly
being
devic
conven
caused
oxides
taken
texture
##arent
component
##ometer
70
eng
tur
dri
allow
consistent
##ime
continuous
theore
##24
precipitate
behaviour
center
whereas
acid
titanium
hence
photoc
adv
##ytic
plate
among
##pend
inst
application
measurement
##odic
effici
broad
top
##gram
bor
##ists
does
##valent
##iding
3d
##itude
##ided
bands
sat
china
mom
##more
scatter
recrystall
mode
iron
ultr
proposed
##ising
force
crystals
##omen
furthermore
star
underst
transm
##rogen
magnes
excell
fe2
phenomen
inv
constit
electrons
90
##ann
example
improved
##90
remo
mixed
contrast
##ive
electrolyte
microstructural
##ressed
magnesium
##ins
summ
spectroscopy
transform
means
transp
excellent
##onding
o2
sus
##cl
thermodynamic
der
resis
via
indicate
##pect
substitution
ceramics
##ived
##abil
short
##itation
efficiency
fe3
kinetics
distance
sic
cas
jpg
role
coll
cd
dy
decomp
segreg
voltage
acknowledge
refine
##ention
exhibits
deg
solute
literature
##ensities
26
contact
enhanced
rare
conse
radiation
##less
general
ball
##work
consequ
residual
den
coated
illustr
lam
sensi
symme
##gical
##ump
##lograph
##elding
assum
sml
environment
enhance
response
martens
atmosphere
##lement
##cep
polarization
space
earth
sto
followed
added
ba
estimated
width
suc
21
energies
stor
forming
dependent
cath
defined
secondary
##osity
tin
bonding
activity
end
characteristic
tend
##ged
##22
including
act
indi
tm
normal
situ
##alt
follows
##set
great
sintered
##grad
27
again
##vity
domin
vacu
cracks
##gan
conver
superalloy
storage
few
martensite
##ult
hex
weld
negative
stresses
beam
##hy
vacuum
join
thermo
##tron
preparation
concentrations
g−1
net
b2
rough
theoretical
circ
##escence
generally
##ring
strengthening
##000
active
##ior
##urs
dam
highest
##verse
##loys
##ero
employ
supported
az
discussed
crystallization
finally
sour
back
nature
confirmed
sul
mechanisms
becom
impur
bcc
resistivity
fail
dynamic
##sm
conducted
depth
conventional
nec
detected
occup
controlled
sizes
testing
##tility
##ending
internal
initi
photo
series
development
slow
core
microscope
yb
##than
electrodes
irradiation
relaxation
photocatal
characterized
rh
ductility
##uter
succ
she
vibr
investigation
01
solutions
fac
toward
dimension
term
products
precurs
##ady
another
edge
med
cutting
selected
##ga
ram
pul
equal
##acted
coord
##order
side
ep
##ective
fo
nitr
technology
furn
##entioned
qual
##49
spher
##tions
clear
electric
config
s002
rele
##35
arr
##izing
anti
##allel
##85
exhibited
planes
##45
02
superalloys
lines
##tructure
domain
s−1
prefer
becomes
recently
interfac
##nb
##ator
final
##31
formul
them
upon
revealed
deform
cells
understand
nat
mg2
##con
visible
loop
##ither
rot
inte
interfacial
##ud
pp
furnace
posi
models
refinement
constants
95
espec
maj
strip
hal
east
factors
molec
##ather
impl
hel
determine
##ink
met
especially
casting
reactions
##old
##acing
univers
##oh
36
cyclic
parallel
##lished
700
radius
##mn
##lographic
##ometry
major
##side
bu
##ep
isothermal
national
leading
disorder
dou
modified
interes
engine
inters
elong
nitrogen
purity
##medi
rang
##ector
##ichi
##ritic
##iax
transmission
record
information
required
constitu
gradient
##fully
features
peri
sens
##pe
gpa
##thal
mem
characterization
propag
achieved
additional
diffic
arg
degrad
55
shift
aus
real
separ
program
anisotropy
analyzed
integr
off
chrom
##99
terms
##ets
clusters
wor
highly
imped
##zn
dissolution
ni3
exch
usually
900
damage
##ging
cn
heter
absorb
reference
proj
iii
##cu
##cent
magnet
##eloc
expan
48
stabil
provide
max
identified
##apor
raman
32
##gest
lab
points
corresponds
compression
expos
avail
segregation
scattering
positive
fill
levels
easi
shar
noted
physical
devi
##active
silicon
vs
decreasing
s00223
##man
##ks
accur
amp
##ological
##79
adsorption
solub
quantit
listed
micrograph
##mic
##for
previously
limited
150
trend
fa
dsc
expansion
##isting
##uminescence
recorded
porous
##ened
##duct
fib
slo
neu
##dr
stoichi
semicon
##ometric
plas
excitation
note
tested
adj
theory
cre
austen
##sk
reflection
simulation
supplement
rather
enthal
enthalp
mentioned
##ahedral
calculation
wavel
shell
##21
failure
##26
common
xps
veloc
##925
fund
zero
##33
##ayed
necess
barri
foundation
exposure
product
##ceed
wavelength
vacancies
##ering
alter
wide
65
s0022311
origin
carbides
##itting
fric
interactions
degree
##mg
decomposition
support
homogeneous
commer
investigate
##ologies
minimum
respect
sa
co3
ordered
cm2
##rystalline
num
examined
##be
commerc
##ying
nio
##1−x
##lor
cycling
##aced
greater
solubility
explained
either
exchange
##ised
reduce
##taneous
111
##orts
pas
##ire
demonstrated
##by
uv
path
sulf
##atis
employed
##h4
seem
vers
cases
supplementary
double
might
foc
coars
##aps
gradually
##ave
##ci
available
numer
44
observation
moment
##hz
limit
contents
defect
located
34
success
place
source
carbide
##rome
tub
drop
fav
way
full
mark
##65
rand
intr
natural
strongly
certain
##pping
000
generated
##pped
schem
hys
types
transitions
differences
porosity
property
lamell
##acking
hexagonal
appears
##tention
transport
37
index
cold
##tained
del
impedance
capacit
##utter
spacing
valence
techniques
##ung
interest
##89
welding
nanostructure
##els
##ier
species
pair
lan
random
co2
##aˆ
suggests
fully
degradation
fabricated
##ber
##ces
##incip
simple
hyster
##29
interesting
princip
##fic
##ompos
ent
graphene
coun
desorption
directly
aged
##ced
##ibb
observations
argon
##orpor
plasma
pri
existence
##iew
lith
friction
##ott
focus
##esis
ow
stir
##fact
##ler
##lying
cooled
##ugh
recrystallization
##anular
##ounts
##59
evaluated
areas
predicted
conduction
##zr
symmetry
nanocompos
##tically
account
heated
##ortion
py
rgo
cs
silic
oct
pores
react
composed
positions
recover
network
relation
##ods
fields
view
milled
incorpor
having
spr
poss
resolution
polycr
eu3
##ensitic
##ned
##ules
04
ferromagnetic
##hes
become
did
squ
aluminium
apparent
represents
##acement
ordering
constr
university
##brid
semiconduct
hysteresis
38
##eler
nic
ionic
suggested
best
orth
elemental
ribb
ampl
far
phenomenon
##ns
##iss
sharp
martensitic
85
mac
subj
glasses
grant
##vent
wave
neigh
hydride
03
acknowledgements
resulted
possess
depends
proble
combination
##gether
neighb
##tely
molten
##itable
subsequent
recent
necessary
devices
summar
inside
velocity
crystallographic
sputter
stripin
engineering
est
easily
vacancy
least
must
occurred
difficult
considering
bes
rolling
grown
overall
attr
sio2
together
compressive
interfaces
correlation
substrates
solder
half
##infor
signal
prior
magnitude
bene
ap
##lin
tip
cu2
##rites
##76
##igned
##ganic
fitting
##b2
nearly
consequently
mixing
completely
deformed
diffract
barrier
graphite
##lat
chann
groups
mes
possi
arc
##ew
though
quenching
kj
conclusion
250
##omb
quenched
assumed
towards
independ
starting
intermedi
al3
manu
ground
precursor
produce
multip
expon
##ystalline
details
##kely
tic
formula
presents
coefficients
estab
distributed
ms
clos
39
##ensive
sw
##ropic
acceler
quality
##83
ide
##ittle
law
tetragonal
##63
mv
##xt
face
hr
##ok
##aster
tough
##ware
self
widely
##atch
reinfor
diffus
##ression
##ital
##ulation
derived
versus
##inity
detailed
equivalent
metall
expressed
vary
##encies
prac
kv
commercial
densities
cost
lithium
alumina
ho
entropy
##tile
##eared
hybrid
dimensional
110
cruc
amounts
##vely
pass
rt
phon
−1
exter
saturation
aut
si3
gives
err
##−2
##onic
plots
improvement
downs
quite
contrib
##61
##cal
fast
van
repl
dissolved
simulations
##cepti
2p
complete
suitable
##line
thumb
consists
photocatalytic
zh
provided
##69
dark
led
confirm
##enced
##herent
zirc
##nail
##27
intermediate
polished
thumbnail
##ampled
original
poor
downsampled
sufficient
nanocrystalline
suscepti
##inning
software
enthalpy
kα
lowest
functional
31
profile
120
elongation
introduced
besides
correspond
until
intersti
instr
slope
interstitial
ability
roughness
aa
s0925
separation
profil
conn
little
##ulated
likely
macro
obviously
plotted
basis
##atically
propagation
ferro
polycrystalline
spherical
marked
working
cover
rapidly
##view
age
morphologies
advant
indent
##hard
cause
zinc
##48
##ares
pack
##ren
distin
sno2
microw
bloc
43
coupling
affected
dendrite
investigations
interd
impact
##43
##put
binding
##tific
neutron
##ables
rever
external
##vated
analyses
cob
pore
##utes
bonds
simultaneous
##rometer
cv
owing
cf
util
nam
##og
promising
##28
2θ
pub
polym
mc
flux
stain
chem
colum
configuration
fix
open
coarse
##let
subsequently
##ai
joint
make
toughness
##ears
##atively
batter
##zo
1100
##ovsk
void
parts
luminescence
reached
bi2
nom
tan
bre
production
##que
forms
##hardness
modes
##icular
efficient
##thanol
longer
##388
spect
percent
five
independent
extend
96
chromium
probably
ra
financ
##ca
##eck
negl
profiles
capacitance
austenite
##rich
refr
ni2
cathode
directions
provides
buil
artic
curie
spl
shaped
##ration
##78
m2
reveals
##91
generation
1200
##ropri
ratios
gb
etc
drx
gel
tc
##acl
orb
illustrated
incon
machining
cos
98
##po
whole
coarsening
displacement
198
combined
cobalt
##95
##ax
o5
##iec
edx
06
anode
##ishing
impurity
ys
attention
zircon
##osen
ss
remains
successfully
zro
##istry
enrich
mos
tension
##orient
pse
##ires
##ysts
green
ess
anodic
mig
seems
cracking
device
##lier
elevated
##cool
##mit
extrusion
strains
appropri
##crip
gain
surround
indiv
pseud
white
gu
inconel
sections
perovsk
later
project
now
dc
altern
log
molar
##74
wall
contains
chosen
stainless
##mi
ethanol
interp
outer
industr
latter
microhardness
showing
dispersive
54
nar
rise
boron
affect
stacking
equations
invol
twinning
pm
draw
##othermic
##ice
y2
turb
else
post
ebs
dried
##100
inhib
c3
stoichiometric
coer
cr2
ferrite
accum
micrographs
against
##lets
##insic
diffractometer
53
s00223115
tri
##a€
##ify
##ental
treatments
article
regard
crystallite
avoid
tung
hole
lifetim
period
##ism
earlier
inset
##acy
dil
concluded
except
##orh
recovery
overl
dominant
effectively
ens
tial
##iting
##ings
carrier
ones
experimentally
##cf
tungst
350
##eni
essential
whe
often
dispersion
lamellar
08
targe
move
ace
##rystal
microwave
narrow
enhancement
metast
appropriate
done
##sn
help
##ones
rece
thir
phosphor
diam
quant
depending
pdf
63
phonon
##cd
promot
coordin
##while
instrum
amplitude
remark
ebsd
##ics
##resh
centr
agg
causes
aqu
bur
a1
fitted
bott
kinetic
kg
ideal
lt
medium
##und
##ombic
conversion
49
susceptibility
suggest
comparing
##ways
bal
foil
excess
clean
450
001
compe
exposed
hydrox
individual
inner
##ense
46
appeared
basal
##itr
64
distinct
##oth
hv
mobility
42
achieve
additionally
smo
n2
summarized
##iter
##ournal
deviation
extre
accomp
##eg
dispersed
##eity
reducing
##granular
catalyst
column
subjected
metastable
att
alk
chlor
##imin
responsible
zro2
blue
reson
changed
718
o7
reaches
tube
##ock
adhes
##fa
you
superior
evidence
fixed
nominal
loops
orthorh
##uded
##77
never
bottom
ti3
##sivity
true
evident
called
organic
perpend
##cribed
pv
memory
##iv
third
perpendicular
across
orthorhombic
require
tendency
##fit
superc
aqueous
sequ
activated
meanwhile
repe
nps
##tration
suggesting
assess
break
six
##aly
takes
spray
valid
rout
pan
height
nc
propor
##ecting
dendritic
##enti
alre
sheet
##ores
operating
tungsten
##ane
ec
##bly
already
amb
##fc
s09258
absence
ing
##atory
explo
ppm
##lex
mah
circu
fes
disapp
counter
enough
give
##ian
##eless
solar
laves
perovskite
beg
initiation
4f
67
nacl
host
hz
−0
extruded
2000
addi
modification
probe
ultrason
##acts
sensitivity
47
##pd
sputtering
placed
rolled
geometry
collected
##bed
intensities
depic
variations
97
ferroelectric
##ensions
oxidized
semiconductor
##elastic
##urated
cation
650
steady
class
1016
established
criter
plasticity
steps
refined
brittle
##thyl
minor
dip
##theless
##800
black
protective
prog
##ae
taking
diffu
##55
displayed
journal
glo
intrinsic
impurities
mar
mos2
ascribed
get
fabrication
steels
##gments
##anes
nial
pel
equiax
##ead
immer
##44
grin
exceed
understanding
block
take
processed
750
enti
favor
##93
reduces
error
stages
##tition
labor
years
partially
catalytic
ct
metallur
centered
po4
s13
concer
fractions
inser
facil
immersion
##isation
##ired
coordination
machine
hcp
received
eas
financial
56
##ision
next
comparable
equipped
imag
salt
##fs
twins
ageing
##amagnetic
##orientation
extent
assigned
localized
last
mr
young
diamond
mw
instead
additions
##uk
##fo
##thermal
particularly
too
multiple
potentials
passive
considerable
opp
ribbons
fermi
sensitive
vapor
adsorb
review
entire
basic
coupled
zones
problem
sod
reflections
ls
hea
smooth
dense
oriented
dendrites
heterogen
plates
spectrometer
plateau
adop
div
always
evapor
perme
equiaxed
spinel
alkal
abr
rod
evaluate
n4
greatly
##umption
bod
58
distortion
aim
##omm
frequencies
special
functions
##hyd
substan
distances
hydrothermal
##oring
joints
melted
makes
##72
frame
iv
##lattice
pene
easy
sliding
typically
fluor
##endi
c2
manufact
orbital
find
dissi
nanow
fs
vibration
lifetime
quantum
niti
tl
##ake
ambient
visc
har
##atom
disordered
isot
##fe2
fuel
##yb
namely
kept
##ficial
circuit
##endix
66
appendix
tun
silver
feed
early
exists
fm
determination
41
numerical
cand
ensure
pulse
##iaxial
allows
##lomer
purp
fec
ranging
bright
var
##ises
heas
##oted
vi
##ips
appearance
jap
approximation
09
preferential
color
displays
calculate
softening
cations
##ored
solidified
needed
controll
nevertheless
finding
cds
belie
square
descrip
regime
firstly
a2
rad
rp
migration
##arily
na2
nanor
mgo
nanot
orientations
moments
d0
eqs
bending
ti2
dimensions
gib
s1359
just
lu
angles
stret
candid
octahedral
simultaneously
ld
proportional
reli
grinding
adding
indeed
wc
onto
cp
agglomer
ic
ko
unique
ig
##adium
coerci
##ades
ultra
reports
substantial
upper
unc
calor
wr
ger
behaviors
combus
bath
semi
holes
gibbs
motion
statis
vector
consisting
gr3
gr2
##istic
sulfur
##arch
72
mer
rig
##eol
##rystals
deple
decay
similarly
report
accompan
sev
tib
interpre
japan
simulated
s1
practical
52
rotation
wire
##pr
quantitative
wet
interval
##hydr
kin
varying
accuracy
altim
polymer
##tism
altimg
target
sodium
reasonable
stronger
describe
flat
coat
supercon
cathodic
summary
##ont
no3
##sis
180
phosphors
57
##way
ded
mid
combustion
laboratory
##ry
cham
molecular
undercool
molecules
94
##ition
die
gr1
550
absol
contributions
##rence
calorime
sheets
##vant
driving
beneficial
##uctu
coercivity
monoc
static
si2
useful
δt
77
severe
predict
fluctu
represented
##68
ductile
thank
left
fundam
51
comput
differential
excited
mn2
##odes
##elling
##tz
play
##uting
antifer
s135964
identical
finite
dm
##aring
prevent
59
mang
diffuse
nanoshe
initially
hu
assem
nanocomposite
07
pop
afm
thermoelectric
intergranular
ultrasonic
tor
88
map
##itt
er3
l12
##omin
ds
distributions
enc
manufacturing
##ading
eg
##df
body
93
removal
lanthan
extended
misfit
occurrence
ingo
68
##cn
78
ingots
infr
industrial
turbine
arrow
ht
rup
ranges
discre
coherent
magneto
past
absolute
onset
jpeg
##67
pairs
##ands
v2
iss
possibility
dos
ultim
##h3
faster
##62
li2
thresh
right
##aged
neglig
cm−2
##linic
##ton
facilit
##o6
yb3
##tem
release
focused
##ug
calibr
##of
thermally
raw
designed
instit
6al
cuo
removed
al0
route
stra
catalysts
extrem
ceo2
rupture
##ood
##orous
channel
eis
published
ij
##acent
##van
novel
850
thereby
contained
improving
gr4
phenomena
capability
columnar
fundamental
ur
satis
adjacent
filled
cnts
##ograph
asymme
##iece
belong
configur
inh
implies
az31
reversible
quasi
co0
former
chamber
embed
nanocomposites
rie
##ensively
worth
##i¼
maps
straight
construc
compositional
predomin
included
splitting
gal
observe
confirms
modeling
##apping
works
run
optimized
bmg
##atomic
cho
##ids
braz
electrodep
wang
autom
recomb
##assi
##itic
maintained
carriers
existing
hydrogenation
jcp
adhesion
arrange
percentage
i¼
prediction
scr
##oped
##98
became
ps
hydrides
reinforce
desp
##ank
##auer
nanotub
##ee
lig
mechanically
maintain
ever
assuming
74
silica
pressures
input
62
separated
front
measuring
despite
pie
able
##66
molyb
jeol
tens
contribute
anom
##ety
indentation
analytical
description
recrystallized
##97
##tives
##temp
##tv
hrtem
compact
negligible
opti
substituted
monoclinic
varied
infrared
pseudo
transformed
inhomogen
##och
glassy
compare
demonstrate
estimate
advanced
stirring
eu2
threshold
δh
link
actual
##layer
aggreg
2d
allowed
acet
researchers
scien
##vier
acknowledgments
ce3
mism
solv
nanostructures
include
pc
sensor
##ibility
##eres
accord
involved
plays
crucible
extremely
##ash
optimal
##ron
fluores
jcpds
73
exponent
83
irradiated
mb
precipitated
##tveld
largest
constituent
forces
##ounced
layered
##ffer
rietveld
consequence
connected
anisotropic
voids
ltd
central
pron
permit
incorporation
clad
proceed
days
diffusivity
##ains
gan
cb
scales
paramagnetic
intermetallics
shifts
mixtures
##son
undergo
procedures
cz
pronounced
commonly
reproduc
pu
mgh2
remaining
scientific
yt
batteries
monit
##ielding
##anged
macroscop
growing
representative
constitutive
diagrams
glob
cocr
950
##tices
##×10
exothermic
chloride
sequence
sized
deduc
increment
promote
zns
imm
la2
aer
nanocrystals
attemp
##olar
##aces
changing
##42
##tine
##apped
demonstrates
interdend
expression
##92
spectral
soc
mismatch
##ious
hall
once
hg
optimum
##dle
ns
coo
throughout
dissol
incid
shifted
homogeneity
promo
elect
##ledge
cou
polishing
grate
so4
##ators
gr5
advantages
##−3
irreg
big
heterogeneous
##gment
dem
nanof
consisted
knowledge
##arest
applying
fiber
longitu
moder
##vice
transformations
kind
longitud
indexed
##rees
regular
##indr
ysz
vertical
pyro
stretching
##ancy
##amping
pool
nearest
seal
influenced
##53
lr
liquidus
uniformly
balance
weigh
zhang
turn
##tingu
considerably
##fect
recombination
##olated
##46
bey
piezo
##fication
adopted
##ik
ni0
repeated
lani
cm3
holding
embedded
mesh
evaluation
prepare
##apac
monot
##tered
86
deep
requires
png
whose
nanosheets
antiferromagnetic
dta
##ours
remove
dry
ingot
##bium
planar
oppos
notice
hyper
##ots
resonance
##ses
channels
framework
distingu
restric
closely
strate
##ysis
gover
##artz
##41
quantity
foam
mn3
reverse
accompanied
surrounding
##f3
zirconium
approaches
nanowires
kinds
implant
beyond
##inary
broadening
longitudinal
decl
##ometr
1995
nanorods
operation
##atin
##ule
##47
##acting
220
purpose
4v
hor
whether
continuously
mostly
np
accordingly
89
irregular
parent
##the
display
a€
figures
permeability
calcined
galvan
lp
optimization
multil
##bi
favorable
##asons
what
hollow
mapping
future
reflect
wo3
##arding
enriched
elimin
macroscopic
domains
##tm
pris
92
reasons
preferred
quartz
sk
fe0
76
dft
exten
vick
yet
duration
misorientation
##ert
believed
identify
german
##acks
aln
uniaxial
##ducting
##wise
precursors
swit
interdendritic
respective
coal
2010
instance
cyl
crystallinity
movement
start
importance
##ials
nuclear
machined
bn
lin
evaporation
scheme
ret
cc
multilayer
mno2
solvent
##com
mn0
potenti
transverse
predominant
osc
cylindr
rpm
fc
##osi
bil
controlling
dro
##rup
units
tg
##88
event
aspect
perfect
institute
cylindrical
etching
sal
pers
grained
pin
hum
##well
##ynam
obj
##ef
adjus
saturated
dissip
bare
numbers
reag
hypo
inverse
piezoelectric
spun
instrument
care
sig
intense
s4
magnification
author
87
accurate
radii
sps
environmental
attracted
82
##ev
sectional
remained
scre
##amination
molybden
##ky
criterion
every
dt
fusion
exact
drawn
protection
densi
accordance
vickers
detector
##si2
1996
##where
interlayer
molybdenum
##essive
depicted
shr
s002231150
1s
moss
adsorbed
kn
##ans
usa
##uts
numerous
yttr
plat
referred
sensing
##vation
##rous
##82
##da
fault
axial
hp
##gor
61
c6
##idation
opposite
relevant
reactor
advantage
##ication
##anol
desired
##sat
alloyed
sublattice
##bauer
pressed
khz
elsevier
mt
2015
##ectors
probability
partition
##200
##ahedra
##96
##atus
##anese
edges
chemistry
az91
ts
rule
varies
##ellow
attach
configurations
add
schematic
concept
illustrates
slowly
infer
##tium
covered
2016
##54
##52
denoted
wind
tradi
fluorescence
stem
saed
induce
etched
experi
correlated
utilized
10−3
linearly
##apacit
##atibility
grade
pellets
undercooling
cam
penetration
complexes
hip
##acu
stoichiometry
divided
##oxide
relationships
vanadium
##artment
hin
160
ribbon
##1−
##ocl
##ustry
extensively
constrain
ultimate
occupied
coex
##f2
##hol
bias
##oxy
extensive
##tured
discon
analyzer
##b0
geometr
capacities
ghz
##oph
##sibility
##no3
determining
dopant
##ws
deion
damping
shrink
125
flex
industry
permittivity
notic
shapes
##ba
##32
##itten
service
##tilled
proved
denot
##riting
zn2
magnetos
workp
assumption
keep
ammon
resolved
isotropic
1997
rs
##zt
8388
problems
additive
distilled
##aft
min−1
##inations
sensors
comm
contrary
lack
##kl
notch
clar
writing
induction
accept
bc
detection
##eness
assisted
69
occurring
prol
variable
tb3
∼0
liu
arrangement
##al2
uts
performances
spall
##ls
2017
dominated
nitride
##idal
deposit
regarding
location
nuclei
accumulation
redox
bio
cnt
##dc
alkaline
affects
manganese
##ters
mev
##71
105
71
welded
transi
##hydrogen
µm
pressing
la0
predictions
reactive
calcination
principles
##romagne
pinning
∼1
compens
deriv
providing
susp
variants
conductive
primarily
directional
nanostructured
rods
##olic
##ders
brid
tetrahedral
photol
analyze
oscill
normalized
pristine
viscosity
##sively
##aa
transferred
##ertain
84
##rought
##mann
instability
occupy
qualit
photoelectr
attractive
absorbed
fluid
##itive
competing
##ostatic
finer
gau
101
deionized
department
biom
interdiff
compr
washed
deduced
##par
##yc
koe
1050
noticed
##56
trip
gr6
##angular
s09258388
remarkable
##ij
91
resistant
master
variety
hc
extrap
principle
references
created
##tes
nb2
irre
##orter
##ommod
starts
discontinu
298
sf
rev
81
##echanical
embr
semiconductors
selection
t6
window
war
ero
characterize
charged
##s2
mold
1300
##pro
##b3
battery
lm
ti0
slm
##ze
##anding
away
nr
undoped
accommod
gbs
##ah
complic
making
##lysis
middle
computational
trace
##istance
ai
emer
tib2
quick
why
possibly
frag
environments
beginning
002
exponential
fwh
incorporated
##ley
dissoci
centre
eb
examination
abund
microcr
shorter
bonded
nitrate
##alc
##agg
incident
##ex
improves
##oup
magnetostric
os
tgo
##ob
passi
limits
chall
spon
##ancing
shock
platin
hcl
densification
generate
alternative
1500
10−4
agent
check
suppress
##58
bran
traditional
homogenization
unli
##tor
##ights
needs
workpiece
empir
140
koh
trib
chip
##f4
spring
exclu
3000
nor
austenitic
mossbauer
##avy
periodic
##read
vic
yields
spati
platinum
a3
randomly
essentially
vibrations
unf
dram
others
cr3
til
2014
ring
2011
computed
hist
understood
extracted
tends
unst
sources
fwhm
voltam
o12
candidate
reinforcement
thermoc
##olation
##axial
##vities
variables
findings
reinforced
insul
##come
photon
spots
micros
cu3
implement
##sian
hetero
tools
##51
built
magnetoc
sma
##fied
integrated
##hedral
quater
computer
epma
chen
gold
lub
##700
elsewhere
pert
bub
md
sealed
consideration
gam
sets
##odal
statistical
hydroxide
intern
##ground
heavy
mole
deby
##130
supersat
lrg
manufac
imaging
depletion
photoelectron
magnets
##junction
appar
equip
##86
debye
membr
##beck
morphological
inhibit
nanotubes
methodology
sr2
quaternary
##cale
db
influences
##rect
situation
79
box
apparatus
photoluminescence
oe
##36
dipole
background
sand
##ounted
##gers
alp
explan
binder
extra
packed
loaded
charging
doi
##ches
interdiffusion
educ
##dd
elongated
nd2
##irable
faul
pitting
mas
epit
written
discussions
##iang
##oy
2a
tensor
cladding
seebeck
##scatter
possesses
##pb
separate
##osp
##enting
##549
##ulate
her
dy3
immedi
mol−1
nicr
##here
proportion
aligned
backscatter
##hs
##tre
progress
conv
δs
##umes
lengths
don
spot
neutr
dynamics
concentrated
trig
strengths
quad
refs
cry
pic
dehydrogen
inj
retained
##int
uncertain
##cm
arch
actually
gauge
anomal
2013
formal
bragg
##cted
germany
cub
forging
##ortun
vicinity
##ectivity
pf
supercapacit
##tities
isolated
stabilized
qds
filler
nonline
coinc
om
dimp
angular
defin
spheres
needle
monol
cleaned
output
##tir
mil
arrows
transparent
##lest
raf
bone
electrodeposition
lubric
phosphate
##zed
##lish
##hf
##lc
s0925838
contin
heus
crystallites
imc
acqui
te3
isotherms
jump
pump
systematic
mob
transient
nim
quantities
130
correction
##izon
##po4
k−1
inclusions
dye
empirical
electromagnetic
metallurgy
inn
microscopic
conclude
datab
##ince
##urrent
haz
media
k2
assume
ip
majority
symmetric
##718
drill
112
fibers
ca2
heusler
pointed
templ
ecap
horizon
##ilities
ethyl
gr7
metallographic
ze
fall
equipment
variant
##atio3
##orting
apparently
##als
bars
fam
td
cube
identification
##isi
unstable
da
dual
stored
gga
##na
fei
released
##oric
yag
##inated
extraction
tell
enhances
refract
##eric
##pects
yellow
concerning
##ithm
involves
naoh
operated
tbc
b4
##ken
centers
nh4
manner
##arged
enrichment
p2
interpret
immers
##84
producing
mi
##ured
anod
##aku
2012
includes
produces
ftir
pet
involving
##xic
mesop
horizontal
phil
nonlinear
text
assemb
rect
discover
##adily
indirect
slur
##elf
diameters
sufficiently
1400
s135964549
perit
alco
replaced
suspension
##a0
das
prolong
aerosp
aˆ
zt
hit
103
yttrium
deterior
semic
dur
10−1
ber
complicated
monoch
rhomb
stirred
disappear
constituents
alc
aerospace
driven
enl
stiff
##catal
consol
physics
s0079
mn4
anion
detect
nh3
lumin
drastic
pole
fem
2018
fourier
unch
doc
specif
examine
simpl
##rer
consum
parab
spatial
thermocoup
microsph
s007964
signals
overcome
t2
##phase
principal
gamma
interior
crucial
methanol
##isk
synch
sulph
##has
ti4
retention
sphere
coordinates
shrinkage
tang
##lyc
##zz
reliable
spontaneous
5d
causing
niobium
##gely
overlap
##static
mhz
dot
##tivities
ve
##87
dwell
ferromagne
bt
10−6
largely
combining
enthalpies
quantif
held
words
c1
radial
##sh
unlo
astm
104
none
nf
gn
sv
m23
calcium
thor
strategy
closed
calorimetry
##king
##oses
axes
forward
acetone
##39
##alloy
deposits
thicknesses
##reci
faults
inor
supercell
tables
##ahedron
bol
in2
pct
disk
une
ft
thermom
monochrom
rf
bruk
rigaku
analysed
yielding
education
refractory
abrasi
##81
algor
homogenized
##atase
##aging
losses
##fine
recog
prism
multim
##ynamically
bfo
lic
fluctuations
##n2
volumes
selective
icos
##versely
quas
##ittance
code
bruker
regarded
ti5
orbitals
dissipation
##ously
constructed
erosion
buffer
coexist
##cb
hier
interatomic
difficul
sd
conducting
α2
blade
##xx
energe
classical
offer
hierarch
appreci
org
reaching
##feni
##phot
1993
tubes
embrittle
240
trends
metallurgical
systematically
dose
##izations
sigma
##aterials
##yr
##a2
melts
seed
##eration
accelerated
suppressed
extension
weaker
##500
dehydrogenation
anatase
vo
put
##oidal
verified
1994
hold
explanation
o6
ferrites
irrever
625
kev
sn5
international
oil
round
1150
neighboring
passes
##what
portion
##uth
##ended
##escent
##urally
somewhat
titan
province
##ily
tn
glyc
##34
trapping
immediately
illumin
90°
modelling
##after
m3
currently
blades
id
electrocatal
semicirc
nanoscale
rhombo
wetting
parabolic
correct
zn0
locations
junction
colo
specifically
vb
inhomogeneous
##bles
##bur
corr
cellular
sides
##bf
itself
unchanged
limiting
giving
##land
##iation
serious
sb2
preferentially
##ography
alcohol
##gence
zirconia
crystallized
peritectic
embrittlement
highl
carbonate
dev
glide
ministry
rest
substantially
moderate
align
interestingly
syner
asymmetric
∼2
##kh
##achi
manif
deuter
lanthanide
incomp
dpa
shearing
efforts
localization
aes
smas
hinder
##quis
burgers
0925
ch3
##iver
sfe
##d0
subgr
##erved
happ
##version
##io
pbs
underlying
promotes
employing
sprayed
covalent
##ogram
moduli
2009
slop
rutile
bm
inorganic
##57
##ifications
agrees
##37
sac
unlike
ny
strengthened
immersed
ncs
aspects
##ference
classi
build
refractive
mh
visual
gaps
##cnts
##off
spinning
##c0
hours
closer
attached
transmittance
root
balls
alx
cerium
##reh
remarkably
czts
surrounded
nanofib
##hil
zr2
quickly
recogn
endothermic
##avage
implying
540
obtaining
hyperfine
finish
discrep
spectrophot
superconducting
substituting
##fg
gro
##avime
smallest
##ieces
adjusted
##ifying
orders
##cy
gp
gaus
nd3
agglomeration
lpso
magnetostriction
arm
resultant
gases
absorbing
helium
316
stiffness
spark
##ressive
##94
abrasive
loads
si1
expect
excep
wrought
mg0
wires
integral
papers
bearing
rhombohedral
##ocr
attrib
##ema
slurry
gradual
activities
##wards
al12
converted
lag
neutral
cms
ben
##electronic
toxic
dig
database
cleavage
jet
bandg
synchro
zr0
distorted
ren
spallation
compreh
paths
initio
enhancing
##su
##othermal
unre
pn
philips
∼3
wheel
##vo4
fesem
##arr
tail
mno3
##a1
slower
contributes
inert
remel
##activity
couple
issue
##ope
230
induces
sm3
tcp
##wt
##bo
ba2
1992
##olet
vir
eventually
walls
##itudes
##0000
europ
successful
t1
ti6
##anted
cour
##ony
gray
pit
##lation
##akes
anni
hitachi
requirements
synchrotron
expand
##enius
2008
let
gratefully
choice
lani5
additives
arrh
traces
hopping
moving
tra
radiative
pulsed
in718
introducing
##erated
##edia
##hr
microspheres
sad
moo3
rr
accep
multic
plus
##abilities
foils
2007
bism
gm
##sch
gfa
attack
deviations
annihil
establish
##ford
tga
aldr
atten
##oul
global
aldrich
−2
stabilization
hydriding
r2
reagent
scher
##bb
denotes
unco
brazing
mg17
nanometer
cond
pec
##ld
lamellae
emphas
##down
contamination
acquired
arrhenius
vibrational
sr0
technologies
bismuth
apt
##ocomp
excit
integration
mp
fabricate
peo
dilute
calibration
##oration
reliability
fractured
hierarchical
coher
exceeds
si4
mmol
neighbor
tini
responses
intercon
invari
##odynamic
desirable
##ush
corrosive
roughly
emu
uncoated
noting
artific
##amine
gr8
readily
##otential
δg
##ostructure
multimedia
prel
a°c
ag2
heterojunction
matching
bse
##f6
170
monoton
exhibiting
criteria
inclusion
synthesize
passivation
toler
ka
5°
2019
salts
cu6
supporting
cro
emitting
##ict
approximate
cylin
facilitate
∼10
solids
ques
d2
accurately
bigger
al4
##plastic
arrays
##aff
##kin
discontinuous
outs
emissions
card
indium
prelimin
detr
interpreted
eight
spectrophotometer
interconn
his
solutes
course
dehydr
luminescent
thicker
thought
unloading
train
electrolytes
6h2
dest
##atite
explore
dashed
f2
developing
icp
candidates
ga2
acknowledgement
773
evacu
2006
easier
integrity
cmsx
rectangular
106
bri
aluminide
cus
acta
alpha
epoxy
grit
decades
nanoparticle
##tac
subject
lib
drops
accepted
split
o8
equilibria
δe
plating
action
hypothes
algorithm
adequ
nanom
minimize
1991
curv
tec
fluoride
grid
fair
##ale
bandgap
broken
10−5
gaas
##cl2
technical
##enium
##pective
dramatically
promin
bmgs
prev
ligand
evidenced
math
##aking
mu
sm2
examples
drying
acts
explored
started
realized
vap
##isson
voltamme
1−
b1
errors
autocl
theoretically
mj
211
dissolve
chalc
create
satisf
trap
lf
structured
reflected
ell
cu0
clim
adjust
technological
2004
innov
##indent
dissociation
##norm
##1000
normally
cao
scattered
monitored
##imental
005
membrane
simply
scans
oven
##aloric
linked
centrif
volati
population
match
supports
reflects
trapped
uc
##e2
##era
##tio3
serr
1990
initiated
thorough
reflectance
promoted
lies
herein
estimation
mobile
consumption
sg
excessive
polyhedr
accumulated
contributed
substitutional
cohes
instruments
retain
springer
condens
jsm
##gd
outst
obstac
tmf
thermodynamics
##structure
precision
##ada
assembled
gaussian
outstanding
acknowledged
ldh
##mm
rotating
##uble
lot
recip
tion
curvature
uranium
noticeable
picture
poisson
replacement
ae
mir
poll
##tite
corrected
heterostructure
pani
potentiodynamic
##al4
granular
ten
##min
rhe
cavity
gs
##afs
describes
edi
##fl
cuc
breakdown
solvus
673
partly
positr
##ections
##d3
analog
isotherm
pieces
solidus
stated
perman
##thetic
magnetism
lamp
circular
tm3
##600
decomposed
batio3
pits
implantation
la3
cul
editing
coulo
boltz
feas
μb
photocatalyst
##e0
##c2
gradients
gd2
hpt
980
sym
quasic
array
droplets
inferred
grey
assessment
fold
scherrer
320
kb
corner
averaged
meaning
##zer
##400
implemented
mf
platel
shoul
spread
ultraf
pg
photocurrent
cm−3
bi3
objective
universal
fract
disperso
rd
##arb
grows
resour
worn
##lined
preliminary
imaginary
##la
ito
confirming
##adem
item
360
libs
##ype
commercially
sce
##illo
swe
calibrated
indication
infil
573
##nel
mesoporous
thermomechanical
gd3
distinguish
##b4
penetr
detrimental
superplastic
bs
template
alkali
chemically
##fel
##urb
kr
corroded
yu
##ompon
ks
nos
shan
ann
existed
switching
al5
outside
date
depleted
##eled
squares
rings
contraction
##avimetric
mwcnts
unfortun
partitioning
##sing
assembly
insu
##oto
coulom
##air
##olog
##imed
mould
##licit
supplied
tio3
leak
arises
irreversible
recon
apart
##ste
logar
arb
slopes
311
jem
anions
homogeneously
##f0
prominent
family
predominantly
hem
##chlor
dup
biocomp
b19
##train
filling
bh
networks
insertion
nn
permanent
unfortunately
##bol
recipro
ferromagnetism
frequently
resin
kt
interpretation
lowering
transforms
cg
##elled
fsw
precise
comes
joining
coalescence
##omponent
2c
nanofibers
coordinated
pyram
rl
fe14
pr3
hno3
##orr
kim
tantal
##c3
intercept
chains
speeds
refrig
##wor
##vin
##ano
arising
simulate
##heating
noble
wider
carefully
cte
allowing
secondly
spraying
magnetocaloric
2005
organ
ammonia
climb
sro
y3
unknow
##head
iso
verify
methyl
industries
abundant
version
indenter
insufficient
package
210
##mid
1273
2p3
paste
lcf
1600
lateral
gall
who
multicomponent
rc
molecule
epitaxial
deliver
rene
evol
grateful
waste
gave
45°
nife
1073
ag3
anomalous
pun
advance
ci
##otive
##ape
nanoindent
autoclave
blocks
quantitatively
thermodynamically
incub
intercal
hybridization
supercool
##upt
disappeared
##monic
##140
triple
issues
adi
ign
inelastic
charges
magnetometer
##awa
dimples
yang
102
mm3
maxima
calculating
symmetr
##odegrad
noise
bf
rb
cox
tester
opto
fri
873
##c6
illumination
artificial
2b
ham
occupation
nico2
##tance
nitrides
synthetic
assessed
hardly
973
o9
prolonged
5000
dp
purch
dimin
discrete
shim
##quist
compressed
kg−1
pw
octahedra
il
meet
zfc
distinguished
##hn
mounted
boltzmann
screw
4d
brief
completed
uncertainty
newly
420
moo4
supersaturated
##ellite
##orated
fex
separately
reacted
mao
barriers
##ko
polarized
eliminate
m1
agcl
fring
interpl
otherwise
##max
vectors
280
slab
holder
packing
sun
##160
tantalum
manufactured
challeng
##tized
setup
facets
human
comprehensive
relaxed
ultrafine
purchased
overlapping
magnetron
##ifies
regardless
capacitive
sharply
ca0
representing
assistance
accelerating
2−
symbol
unknown
d8
heal
acquis
twice
nyquist
capture
donor
cum
vapour
acquisition
##uation
proton
esc
coordinate
collo
derivative
##ads
##estim
rus
0001
##300
arise
ng
##ru
adiab
hydroxyl
thanks
icosahedral
whisk
chemicals
biomed
serve
fairly
surpr
##truc
shoulder
geometrical
refining
##ket
stim
##co2
apb
acous
statement
1d
online
##vo
sciences
h3
satisfact
##treated
mn1
sns
occupancy
recognized
o2−
##oni
prismatic
asc
##1100
constitution
appl
took
fe17
segment
cavities
gh
ods
svg
neglected
hardened
ri
borides
attain
fresh
helpful
researches
supply
pellet
reasonably
##rs
hm
synerg
acting
s00796425
dopants
##ski
sei
begins
engines
restricted
reorientation
superlattice
qualitative
digital
generalized
presum
dissim
dischar
evacuated
rearr
nucleus
gr9
econ
clarify
##tis
##versi
kw
##ck
land
chain
tbcs
##a3
surfact
implants
nws
##wid
schott
replace
##ogenic
2003
nonfer
mg3
regression
1250
procedia
adiabatic
304
illustrate
##cl3
microp
fluctuation
##sp
abrupt
attempt
matter
bubbles
mce
##ka
consor
spite
miner
filter
depicts
aggregation
##ulf
##vitation
schematically
nab
sn4
ho3
dx
i³
convection
voltammetry
ni50
annihilation
econom
thermocouple
##width
dissimilar
insight
eluc
wett
chalcogen
sx
##ilo
basically
photocatalysts
du
190
##eb
phosphorus
##eper
##1300
##mentioned
4000
pzt
sputtered
c14
introduce
lif
lc
alignment
##aloy
track
imcs
310
reman
219
tafel
##lection
ef
schottky
b3
nir
ocp
sof
revealing
wu
semicircle
260
spectrome
nonferrous
##scs
##aded
triang
jiang
##urface
couples
electrodepos
equiatomic
pall
##ductivity
oc
##ipping
aero
hydrolysis
retard
##utectic
collection
##inger
purification
leakage
c0
##ars
##asion
##ostat
rhb
jall
reconstr
cvd
l−1
jallcom
cit
enables
continued
inserted
address
δk
monolayer
imposed
surprising
capable
governed
funding
lie
mm2
discrepancy
ll
mention
gase
terti
discuss
2002
##900
##db
asymmetry
wettability
events
bo3
nanoindentation
##tionally
describing
coerc
adhesive
ethylene
uk
studying
commun
redis
p1
intervals
rigid
lap
ce2
microm
biomedical
tertiary
trivalent
hom
practically
conductivities
invariant
interests
successive
coercive
geometric
##rents
999
naturally
380
##idated
faces
ord
validation
velocities
degrees
fecr
o1
brass
##356
dependences
cr0
nmr
atmospheric
##worth
distrib
drastically
affecting
mo2
##1200
facile
##ror
boride
welds
##uck
coexistence
palladium
incomple
grew
cores
crss
public
determines
question
shielding
fe4
fragment
aid
##i2
extreme
adher
li3
compacts
http
s026
emit
##inese
infin
mut
positron
##ethyl
##ao
hkl
supposed
torsion
##iety
history
modifications
hexa
nb3
unus
acoustic
chinese
prin
labeled
kore
##ury
##d6
optoelectronic
deuterium
bi0
reciprocal
∼5
##ument
pyr
nt
coverage
##d5
magnetically
##va
representation
##×10−
##l3
injection
volumetric
building
pulver
schmid
nb5
acetate
proceeds
##zu
acceleration
academ
reactivity
nh
turning
flowing
10−2
0°
drilling
lanthanum
debr
diffused
lore
##iated
pile
automotive
named
##ica
lea
petch
011
periods
##opl
absorber
modify
originated
read
tp
225
5al
debris
##atives
training
1989
enlarged
##lands
undergoes
virt
beh
nbs
##629
resources
wur
qualitatively
quadrup
##ecture
enter
hab
degen
duplex
nanomaterials
cu1
##o5
v0
strongest
preparing
beta
define
tolerance
castings
##agr
##atible
##hi
reconstruc
##ghai
ppy
##ova
competition
formulation
tel
##formed
spectrometry
notably
2h2
droplet
tf
microan
##tiveness
contacts
roll
shanghai
modeled
bim
attained
tellur
financially
##ura
mgzn
turned
##d2
##phad
ways
migr
thoroughly
access
humid
##uin
2001
orow
##gg
pi
neither
iter
sulfide
resonant
dots
belongs
exactly
flexible
applicable
combinations
zrb2
orowan
magnetores
saf
solved
microcracks
720
##osing
calphad
##lattices
india
stabilize
##al4v
fits
1173
correlations
currents
requirement
530
##uchi
relie
cylinder
rafting
biocompatibility
##b6
473
cement
##rown
hypothesis
sy
##gs
##ovol
##ea
##cil
analyzing
1998
forged
comparatively
ti6al4v
##ories
adequate
##hu
nix
glove
silicide
accelerate
##adf
setting
mono
hydrogenated
spectroscopic
disks
circle
disappears
cate
instant
disp
implanted
convergence
textures
demonstrating
fsp
conte
trigonal
107
offers
lattices
photovol
extrapolation
dh
sud
zeiss
##ek
edm
##fem
010
afore
pyrolysis
mmc
substitute
rises
ster
##anar
micron
elasticity
617
##rec
cofe2
mx
##sil
hydroph
wavelengths
ges
anomaly
rm
orbit
consortium
galvanostatic
acidic
keeping
subtr
##imp
al10
displace
outward
explains
325
silicate
seven
##203
dispersoids
galvanic
tx
homogenous
nucleate
175
##chloric
##vol
circles
##oo
minimal
thermogr
o19
##any
supercapacitor
demand
##ochemical
station
bow
optimize
alone
abnorm
web
sz
formability
##ectoid
corresponded
##igu
superelastic
1988
performing
reagents
feal
day
##aren
council
behind
gaseous
##co3
come
##heated
look
003
subsurface
sn2
quench
deb
s135964629
segments
steam
torr
sound
inherent
society
upt
mangan
difficulty
traps
radical
flo
brillo
##a4
aforementioned
480
misc
indicative
insulating
oh−
globular
phonons
s5
interference
2h
dens
##aki
stack
routes
kh
discs
incomplete
##nes
transgranular
ultravi
nozz
ta2
##no
weiss
ni5
offset
superconduct
compatibility
##xi
ultraviolet
oxford
##bc
ferritic
270
coupon
interrup
nis
108
##encing
uniformity
cohesive
##ntz
bife
barium
##omer
mosi2
flower
brillouin
apply
amplitudes
ah
feo
simplified
##obic
specified
waves
coherency
##pol
lifepo4
unm
circum
antic
sweep
##sb
2100
electrone
korea
##aylor
attempts
wurtz
antim
absorbance
particip
ellip
spins
valu
g2
lowered
nanocrystall
utilizing
##allow
involve
semiconducting
filtered
scratch
##f5
photogen
##adzu
contract
nucleated
raised
fg
##uli
explicit
neighbors
declare
##position
checked
##electro
##ara
characterizations
adap
##d4
si0
synergistic
obe
##ancies
hs
ge2
untreated
ce0
achieving
##lography
##ulsion
yielded
ablation
tt
limitations
##roph
s092583889
search
temper
refers
2500
expanded
friend
##isely
wurtzite
s092583880
substructure
thinner
bip
cct
acceptor
si5
photogenerated
backscattered
025
1−x
workers
rearrange
330
tab
760
subgrain
absent
kcl
tecn
dotted
##imes
h4
##ressions
mild
b6
glycol
hund
mal
classified
shimadzu
##ama
locally
delamination
tz
##lear
durability
ammonium
c15
##chem
##hv
##ijing
##enge
##vey
164
p0
aircr
piece
exafs
boil
scaling
##cnt
##arities
dl
vit
##ht
deal
drawing
enab
electrolytic
##fen
tangent
beijing
expensive
nanosi
haadf
##b5
gr10
##250
##853
##atest
s016
mno
suppression
1999
##±0
photovolta
connection
##ull
hydrostatic
projection
##cript
gallium
mor
usual
citric
context
chips
sam
analogous
tribological
jud
##e3
##104
polycrystal
incubation
##ushed
crystallize
##hydrate
favour
displacements
##itecture
2°
resid
solve
fourth
##ino
##urn
deeper
slic
definition
2020
##bilities
sudden
shallow
alternating
nitric
calorimeter
##730
sorption
challenge
reserved
suffer
billet
fto
intensive
potentially
veh
##une
attenuation
directionally
pva
##tructural
fe1
supercapacitors
highligh
discharging
inhibition
m6
regimes
diode
soluble
contam
rules
precisely
convenient
significance
interstitials
##illed
construction
discovered
facility
electrocatalytic
overp
##e5
##acterial
failed
creation
1987
citr
photograph
tiss
lee
conceptual
affinity
rotational
head
s026130
satisfactory
##183
believe
##licity
say
cryogenic
electronega
##vision
al2o3
declaration
corp
clustering
1b
refinements
adjusting
##oplastic
perkin
h5
supercooled
##ra
personal
consumed
mus
designated
##gin
−3
alsi
##izer
lifetimes
pvp
∼4
##e4
joh
evidently
originates
replacing
promoting
encaps
ni1
segregated
platform
sio4
continues
##bt
blend
practice
cooper
cad
shells
polyn
dilution
microanal
cleaning
draft
infiltration
importantly
##burg
gar
utilization
tight
##ask
mathema
va
s030
f1
##ani
##draw
bimodal
fed
##link
tiny
enable
##nte
hd
##isc
si6
mechanics
bifeo3
wal
nanotube
##urate
redistribution
##ectics
##1400
prime
##avity
leach
withdraw
##orbed
hill
rising
markedly
matched
textured
##assium
uses
##aneous
naal
cdse
tomo
ni10
decon
##b8
nitriding
##icity
ligands
mort
vehic
##tting
experience
3a
##idden
rob
magnetoresistance
ure
express
potassium
unusual
520
monotonic
3c
d1
rid
##date
ufg
##ecu
290
eliminated
##ithmic
monitoring
weighed
experienced
##e6
extract
nh2
coarser
effort
accommodate
bed
##fers
##vd
##worthy
beneath
##versal
##gregation
funded
l21
opening
##ini
##œa
manifes
pyramidal
matric
510
hag
anodes
lath
acceptable
equals
##ograms
micrometer
440
sometim
dic
##titive
electroless
tunnel
oxidizing
340
ker
##licate
gun
##eu
390
efficiently
obstacles
consolidation
aircraft
capill
batch
citrate
cpe
##cr2
benef
fringes
sn0
al8
imper
##berg
correspondingly
nanowire
encoun
##kα
##etary
agents
aa60
2024
initiate
valuable
ahead
hay
##ni2
pvd
dominates
drag
eutectics
##umptions
solders
matrices
hour
##d8
sustain
chromia
originate
zha
mnx
distor
015
##graphy
abnormal
pip
antib
perturb
ranged
1a
##fir
compares
noteworthy
electrodeposited
ea
swelling
lda
##ners
vibrating
co4
sns2
polynom
dioxide
predicting
warm
surfactant
till
##acer
coil
##recipit
rational
##ressively
recomm
closure
293
infinite
sometimes
zrc
perm
znse
3m
##zing
##lite
presumably
feco
6061
##tisation
rights
architecture
predicts
##tyl
entirely
weighted
inspec
polymorph
vsm
afterwards
bivo4
recovered
##rr
insert
kink
rays
##ulates
3b
idea
##nn
##pere
lives
taylor
assumptions
cuboidal
centrifug
lto
##wich
ferr
##110
##a5
##mix
edax
devoted
stron
mathematical
comparative
lac
ol
conceptualization
vess
##f7
destruc
na0
destro
facilitates
culture
375
reversibility
arms
inhomogeneity
m−1
inward
played
approximated
camera
diluted
##luor
##segregation
tetrahedra
row
±0
electrolysis
intersection
7075
superstructure
p3
##chlo
quadrupole
colloidal
strontium
moves
epr
monotonically
##leness
xu
dilat
mirror
##rol
britt
ash
uns
gluc
nozzle
bp
selen
comprised
actin
superimp
scc
##oo4
##ighter
carlo
rin
sandwich
recording
blocking
pyrochlo
ak
orange
##point
belonging
##ift
004
az91d
2nd
10°
prone
maintaining
f0
##reading
similarity
leds
cux
differenti
huang
brittleness
denote
r3
chi
recyc
expressions
unity
survey
sulfate
lorentz
t4
quantify
ni7
manufacture
pix
sublattices
probable
spacings
electronegativity
##olds
cdte
532
solvothermal
preven
tilt
tal
fluence
modulation
propagate
container
von
mgb2
preference
pvdf
merit
rg
strained
govern
paid
##ulative
##mn2
conser
universi
cycled
shot
modulated
highres
cla
##b7
115
##a8
slu
doublet
satisfy
logarithmic
f5
year
disad
quadr
iƒ
zk
liquids
distortions
electropol
miscibility
disadvant
4a
effectiveness
considerations
monolith
##che
cerme
al7
span
monochromator
##b9
##aken
serrated
urea
hi
colon
reinforcements
se3
sbf
appearing
inev
li4
tms
373
fp
bilayer
430
##mium
##03
intercalation
severely
polymers
assign
dropped
whil
phenomenological
##ean
##ams
totally
imply
polyhedra
acknowledgment
ni4
benefit
microanalysis
massive
helps
brown
differs
runs
rct
##bm
1c
france
109
pulses
nbc
overpotential
collap
xi
scrip
##aco3
nrs
##hire
photoan
whilst
resistances
135
dissolving
sequential
inco
##d9
chemis
##ishes
twinned
ends
##alloying
##ymium
m−2
electrostatic
##ibles
simplicity
##fec
fx
captured
exponents
μa
##nition
removing
supervision
##ament
si13
interplanar
progressively
constrained
ej
cavitation
inversion
1373
selectivity
##c5
cl−
ti50
inp
electronics
innovation
highlighted
ba0
crucibles
spd
resem
284
photod
##bl
arranged
careful
##eps
planetary
inse
gran
photovoltaic
zhao
dn
biological
nico
weakened
s002231150800
johns
lost
proven
unex
elucid
##aka
##tified
δσ
f9
rub
accounts
##flon
summarizes
113
##odymium
symmetrical
monte
eig
teflon
##ulating
weakly
extending
turns
pros
energetically
compensation
interconnected
μs
deformations
cationic
##eline
##so4
upcon
constraint
computation
bring
exceeding
##e9
isos
broader
widths
standards
nitrided
disappearance
tecnai
submic
improvements
od
auger
file
originating
increasingly
geometries
earths
meter
splat
degener
generates
johnson
##c4
insulator
s8
limitation
superconductivity
investigating
##d7
operations
dimensionless
stabilizing
##parts
intragr
##cing
##osh
contributing
colonies
momentum
##mitted
si10
muff
han
necking
thermogravimetric
lying
fewer
purified
##kov
magnetisation
nicocr
rock
##idence
archimed
t3
scar
1st
goes
instantaneous
##trans
gets
##iner
mbar
bime
impos
2p1
cocrfeni
actu
##bers
platelets
##f8
carry
nb0
rej
feasible
##l2
crystallizes
srx
mois
##990000
abundance
company
superpar
eutectoid
i15
nod
##b1
coulombic
mineral
characterised
permeation
maximal
ab5
1350
amorphization
protect
co1
counterparts
cod
sapp
trigger
symbols
photoelectro
remelted
prove
silicides
compacted
independently
1986
moisture
thereafter
l2
brazed
drawb
sampling
ncm
complement
concerned
groo
indices
modern
fis
y0
##tel
combine
dehydriding
##a6
augment
triangular
##se2
orr
consolidated
sectioned
flakes
reproduce
##fn
ceria
gc
tix
columns
photons
bam
notable
lini
l10
##rh
colour
inspection
naalh4
arbitr
entr
topography
reactors
um
##sen
prevents
safety
nay
uptake
##nant
correlate
nanosized
##ship
1985
magnified
s135964549800
##asting
##olin
addressed
pent
##a9
supersaturation
straining
sapphire
ferrim
rinsed
##used
undert
europium
b0
lip
na3
worked
proof
confined
minority
preview
mq
##a7
magnetocrystalline
targets
friendly
e2
sex
vo2
complexity
jus
sq
exception
glucose
##fes
latent
s00796425990000
1800
bandwidth
gr11
370
303
breaking
viscous
diodes
generating
hν
zn1
vc
turbines
215
hb
contour
fretting
cred
zn3
580
123
cathodes
pseudoc
strategies
mortar
progressive
inhibited
hfo2
sulphur
wed
foams
a356
1984
conduct
##ued
octahedron
##fold
impossible
possessed
##ata
##ounting
gravity
avoided
intragranular
pbo
##ki
##c8
voltages
##tonian
##rx
flank
damaged
favored
lial
##c9
##haus
covering
ku
kl
leaving
##cher
##sivities
whiskers
fore
diagonal
susceptible
##d1
623
interact
world
own
460
xm
##zh
empty
kond
pyrochlore
volatil
deterioration
sche
purposes
cukα
harm
##ifier
titanate
nas
branches
tomography
bst
humidity
##eities
ses
##−δ
difficulties
ple
appreciable
briefly
514
275
##zsch
##5000
##femn
aisi
zener
##ro3
##tification
deflection
powerful
inversely
rearrangement
lv
creating
proves
620
remelting
scholar
lists
##ya
huge
f4
gf
cutoff
minutes
radio
hereafter
vas
si12
multiphase
##aker
ab2
spreading
etch
2s
detectable
pollut
1°
funds
undercooled
perfectly
##day
rotated
emis
##band
isop
cw
s6
statistically
reacts
acicular
##weight
terminal
neel
##fe12
decline
alfa
##e8
##part
##abor
##710
tot
flame
divalent
scen
690
quantified
3p
medical
steep
monolithic
polynomial
defici
going
borate
catalysis
delay
nicraly
giant
inclined
scenari
tuning
s03048
dental
nanopow
agglomerated
motiv
##e7
nanosph
f3
##ros
nanorod
magnetite
154
3°
740
mwcnt
upconversion
##xxx
libh4
s09
instron
sense
##iao
multilayers
mo3
mushy
reactants
shifting
shs
bnt
155
propose
723
gen
a0
##rf
##170
spinodal
##wo4
poured
stationary
5cu
##oule
dependencies
capillary
##za
316l
archimedes
rarely
depths
aggregates
notched
centred
##station
orthog
##grams
electrom
teller
dd
nw
oer
##imination
diver
ultrasonically
tetra
##odegradation
##c1
undes
competitive
kondo
sme
antimony
nife2
##cu2
tunable
stands
tips
##wal
pathway
##sa
mutual
interrupted
counterpart
conj
##uscript
influencing
s02613069
ignored
ti1
cracked
za
##ferro
broadened
sta
satellite
strict
wo4
islands
netzsch
demagne
irres
3al
compatible
fulf
dw
projected
workstation
df
##metal
farad
4b
goal
blo
60°
slag
ohmic
vec
elmer
mgx
polarisation
##aked
ga0
##aul
decorated
resol
peg
physically
weakening
mur
imping
blocky
completion
s135964629800
yam
robust
flake
##720
skel
pig
##ister
h6
kar
##gel
##erant
gnps
refrigeration
reproducibility
##f9
##ude
##istent
multiferro
subgrains
bh4
manuscript
heavi
##alytical
##type
##247
port
tac
aluminides
dominate
evaluating
lz
manganites
accomplished
4°
contrad
colony
pick
happens
wash
perc
remanence
lafe
##ynamical
designing
gained
orthogonal
##dis
410
121
tempor
273
served
cyt
80°
propagating
cem
situated
willi
hamil
epitax
voltammo
capacitor
20cr
today
bubble
523
accounted
##toral
feni
kir
d3
anticip
incoherent
1473
decompose
ca3
guo
restrain
bridge
##mc
springerlink
xl
conversely
sharing
extends
keeps
vessel
##1630
bct
##umar
rms
prem
continue
570
european
660
irrespective
costs
preser
destroy
##fol
coupons
efficiencies
##gman
acces
zhu
gate
intra
elucidate
012
5cr
sn3
haynes
##ificant
flash
s09258388960
163
##len
##oids
##c7
bz
470
202
brought
1983
preheated
micropro
constraints
pbte
zhou
collapse
distribute
dependency
870
unclear
evolved
properly
515
cig
##zen
##ysz
resistive
transportation
ignition
##oles
diffusing
superimposed
inducing
viz
5nb
##isons
dramatic
caf2
gage
facilities
##fb
##180
xy
sonic
srtio3
freezing
yttria
document
mcr
narrower
concern
harmonic
heavily
##can
##xs
s002231151400
fesi
##elves
undertaken
##h6
moved
superposition
configurational
feg
sis
##ailing
agglomerates
##ouring
no2
##ool
availability
lang
reversal
wag
preform
bridging
neighbour
preventing
nine
branch
acetic
remnant
s092
thix
ff
bx
csc
validity
al13
casc
thermocouples
##article
##essively
##8000
reflectivity
injected
optimizing
##ulations
lasers
segregate
derivatives
passing
characterisation
begin
d03
phy
sou
electropl
fen
membranes
##inear
006
mot
lg
201
mgni
1980
disprop
δv
l1
znfe2
detach
crn
decade
azo
triangle
habit
##wr
vial
##bal
panel
falls
e1
##ignificant
opportun
knn
deficient
atmospheres
io
categor
counting
blank
dv
vig
extrinsic
capacitors
conventionally
expense
fi
transparen
evolutions
560
scope
cm−
discovery
unid
##ashi
si7
##ensitive
develops
i±
creates
d4
lsp
##yright
##aulic
hos
calorimetric
recommended
porosi
heterogeneity
ultras
re3
chel
ib
began
##230
insignificant
##ographic
##fd
roles
excluded
evenly
μl
modifying
iod
inductively
attempted
##iral
comparisons
energetic
dz
pill
c4
hcf
perovskites
cat
compaction
peculi
corners
tissue
fabricating
incorporating
##elt
##ln
##inate
discharged
guar
pear
1020
misorient
solvents
−10
##zs
20°
285
##carb
titania
continuum
isostructural
pbe
sccm
degraded
atomized
oste
carr
##2024
cook
interphase
averaging
emissivity
fluorite
originally
bit
aggressive
fft
##bo3
stop
exceeded
s007964250
vehicles
ultimately
423
f7
laths
reproduced
disproportion
inhibitor
##ker
superconductors
exfol
realize
gcd
repair
tetrahedron
elimination
literatures
##kt
toxicity
##f1
##rami
##exp
168
##603
necessarily
##pores
volatile
graded
bimetallic
photocatalysis
##eter
grooves
mmm
mises
fired
wo6
tracks
##cess
transparency
##han
##kel
reversed
popular
##nm
occupies
##bor
511
feedst
arrangements
gr12
perh
nimonic
##vinyl
fragments
strengthen
controls
confine
##ilic
zr3
sulfides
ccto
perhaps
##itz
guarant
##magnetic
px
incidence
sie
altered
##ths
p4
pseudop
r1
acted
znx
acetyl
##ico
zr4
polyvinyl
##isen
si11
tuned
##izr
##ident
fibre
benefits
substitutions
withdrawal
ice
condensation
stream
n1
uneven
145
edta
plateaus
128
tearing
proportions
aesar
visualization
e−
abrasion
illustration
ture
transl
applicability
repeat
##bin
microprobe
x2
micropores
nabh4
quanta
222
evaporated
133
certainly
comprising
peening
##ologically
##bell
stimulated
augmented
copyright
germ
##ester
mini
graphitic
exer
junctions
corporation
office
##onium
viscoplastic
academy
nbss
5a
sb3
##igt
165
proceedings
fragmentation
punch
universities
ccd
cu5
lens
##itably
##till
distinctly
activator
fd
curation
020
encountered
oxal
b9
bis
mediated
positioned
relaxor
bowing
electrochemically
avrami
reflecting
faceted
compensate
underestim
object
credit
exhaus
perturbation
miller
lesser
##gent
##hydride
##09
photodegradation
hamiltonian
##lication
xanes
ch2
antibacterial
##lr
mgs
204
consistency
02°
nanospheres
vigorous
acknowledges
cadmium
15°
gad
rank
extrapolated
vital
conflic
my
##qds
reflow
machin
al1
forb
underw
uo2
##e1
harmful
assumes
advantageous
173
scanned
##nga
hastel
pal
consistently
cumulative
##ulo
##ato
datase
aimed
forced
tio
333
##ern
elast
pain
wil
##stat
##grade
oy
becoming
780
mo5
collector
vitro
challenges
114
biocl
mo0
favourable
voigt
h11
operate
##ho
fax
nanosheet
213
ces
zircaloy
dod
gt
coolant
##ymmetric
plain
bridgman
5b
radicals
reactant
government
323
atomistic
s002231151300
pseudopotential
thems
arbitrary
##rest
mgaˆ
panalytical
differently
heterostructures
gnd
eddy
preced
tial3
##pass
solving
challenging
themselves
##1830
nanometers
2n
consecu
mgzn2
pathways
fro
##luster
tabulated
cup
##inter
ionized
loose
hastelloy
nicocraly
deficiency
∼20
531
425
5f
cec
##ositing
lubricant
viewed
encour
##eutectic
electrosp
anomalies
##169
30°
approaching
##ggish
leaching
k4
overestim
a4
##bh
sluggish
4c
bomb
##vex
dipoles
aps
statistics
2e
##drx
destabil
plotting
bend
nanocluster
theories
mott
exciton
flexural
alternatively
encapsulated
fal
observable
numerically
aa70
harder
ferrimagnetic
baseline
said
aggregate
nanoporous
hexafer
porosities
rhenium
hx
emf
agate
##ucturally
authorship
670
nonmagnetic
##305
1023
4s
mg1
##ita
compli
##arm
##win
263
##bach
stacked
photodet
concerns
park
favors
kam
si9
k0
protot
unexpected
termed
inferior
extrapol
lsc
212
zif
formalism
##ni3
475
nac
percentages
wkh
feeding
5ti
validated
119
##oxyl
holds
hrd
frictional
zk60
butt
attachment
tlp
oxidised
reviewed
forbidden
xe
diffusivities
merc
##wer
behave
select
oscillator
131
scaled
oscillation
reinforcing
nanopl
##509
overlapped
heats
##agnetism
−4
##actions
strips
billets
flexibility
##147
skin
##ima
##ida
##osilicate
##eks
##ming
6°
cacu
lined
conform
snse
117
healing
s03
cual
aims
##eff
##har
∼6
caps
cofe
vo4
##itely
ather
fept
accompanying
viv
measures
immo
295
attribute
##hx
subst
liquation
construct
##ked
plants
pollution
wei
modelled
s135964549700
squid
perspective
plant
##not
compensated
8°
solely
10−7
ki
wish
prote
116
germanium
integrating
greatest
fuels
prevented
1982
extin
capabilities
diffractograms
n3
crushed
wagner
veg
tife
derive
travel
occupying
##femnni
hydraulic
guang
##net
particulate
magnitudes
estimates
implementation
rou
tried
cbn
lb
realistic
630
v3
##ained
members
1450
##7663
saw
bain
##hl
shen
rx
athermal
##02
##rel
sp2
esr
topological
3d5
render
##ga2
buck
hydroxides
ionization
##738
lubrication
che
dq
washing
austr
rip
pulverization
pmn
diffusional
##inte
microsegregation
##tee
mullite
reconstruction
shi
linearity
focusing
ruo2
tunneling
rech
##pc
235
uncertainties
s0167663
coin
plc
indicator
coarsened
governing
4ti
sans
hematite
##fm
finished
bg
repub
stic
4h2
examinations
##iii
al6
tended
gadolin
soldering
workability
cigs
##scale
##treat
##att
commit
republic
hub
recrystallisation
hindered
emitted
dyes
ry
→7
in0
metallography
treating
matches
metallo
nbt
fluxes
immob
##ipher
lih
cie
al11
hypere
neighbouring
anticipated
kur
gao
6000
isostatic
##nts
ans
##ocks
isothermally
machinability
2400
minimization
dumb
##ili
bron
##tex
ped
minima
vp
carbur
extinction
122
faraday
ky
facet
gather
##mark
skelet
curved
regis
smco
216
##chemistry
##rt
submicron
##otox
10−8
carrying
hong
monitor
nodes
polymeric
1123
az61
microc
smart
640
aq
513
##bd
denser
##uss
coincide
##111
facilitated
documented
185
##enty
versa
vegard
##05
equally
depended
pat
365
propagated
s7
##omel
##econd
##ni4
unreacted
##gu
sio
variance
abstr
enabled
instrumental
licl
groove
143
ce4
centrifu
late
##icr
reser
hafn
##ike
a€œ
committee
russian
projects
mun
656
printed
purely
positively
confinement
yan
ldhs
substances
##meter
stabilities
ordinary
terminated
glow
##r2
tracer
cts
satisfied
cx
##alloyed
arsen
directed
parame
isomer
##ematic
underwent
923
ramp
depositing
205
separator
tubular
consuming
contamin
3−
wherein
commission
bif
tian
accelerates
512
pb2
##i3
quantification
5si
soaking
n5
para
boiling
144
09258
limn2
requ
eigen
convex
pt3
immisc
unfav
##uki
gadolinium
zig
##ami
paul
lini0
emphasized
evolve
bd
serrations
biaxial
degass
coulomb
si8
nanob
trun
interacting
sno
##kyo
hypereutectic
weeks
neodymium
−5
##lies
inher
americ
##cepts
1700
profess
118
141
161
##7025
physi
ao
##asts
823
antis
gravimetric
feasibility
graphs
zw
chill
upward
deviate
##stein
##vs
##regn
##eh
dissolves
mentioning
got
##orro
specially
manip
acids
member
##gru
sic2
sims
facts
accommodation
ease
−δ
photoanode
peripher
124
hydrophobic
hagbs
525
feedstock
bto
014
lowers
127
biodegrad
##gb
coming
lightweight
usage
##a€™
renew
pen
##182
obey
oa
dimethyl
jumps
tent
##iring
negatively
drive
scenario
inas
##echn
exclusively
agen
dlc
wi
impregn
oscillations
nayf4
7°
potentiostat
se2
tokyo
lfp
analo
possibilities
fz
##dehy
er2
biobr
4cr
perchloric
181
v1
safe
mcraly
aµ
rbs
outlined
sicp
hop
powdered
oz
bic
δm
dealloying
##304
013
elementary
drxed
i0
lithiation
anodizing
congru
1981
nag
##lam
ey
calomel
diverse
magnetostrictive
ripening
5zn
nv
##125
gd5
successively
formulated
vertically
platelet
##1−y
coincides
automatic
neighbours
alaˆ
viewpoint
s002231151200
branching
unp
equilibr
multiferroic
pretreat
environmentally
##utable
##lab
li0
unlikely
s0927025
freed
##reed
sure
inoc
convert
maintains
burn
##aments
bir
module
cyclo
chalcogenide
mn5
cfo
nowad
screening
monochromatic
conjug
ga3
137
gmbh
nowadays
738
neural
benz
t0
suff
adherent
gax
cole
polyg
needles
qd
##v2
0002
dsscs
313
anhyd
tie
##amb
##803
naf
clarified
lots
151
decomposes
complementary
##sia
1540
##ethylene
soon
##lock
hypoeutectic
relate
##losed
quasicrystalline
stere
##utonium
assist
vm
sinh
319
bb
mof
guid
a¸
mk
constitutional
kel
polys
##unctional
la1
pollutants
degrade
transduc
σ3
atomization
sink
##osphate
stopped
pad
detectors
nz
##ham
##kes
coval
##amide
162
nitridation
microstrain
##ement
dy2
w2
characterizing
217
mmcs
moo2
dominating
obstacle
##odified
sensitized
incons
138
hvof
ost
delta
superparamagnetic
ws2
automob
anodization
sofc
native
##vable
slabs
minute
##atan
preserved
vice
ingan
mts
##105
ok
spalling
vasp
nanogr
referring
hen
kp
dsa
loadings
##wald
anhydrous
inx
trial
142
programme
magnetoelectric
brings
explicitly
finely
consecutive
anodized
concurrent
286
ups
fe5
223
∼100
##sr
reacting
intensively
214
az31b
chlorides
cemented
hump
gd0
halo
μc
sfs
cen
rake
##oxid
comprises
accommodated
attributable
migrate
crx
undesirable
pd2
##dehyde
ris
marks
innovative
##high
##vil
dut
##opic
##iba
running
##olid
lett
minimizing
##sts
##uments
penetrate
centrifugation
##ience
harden
fluorine
ch4
li1
stressed
warburg
disordering
β1
5h2
490
##use
136
noticeably
hydrochloric
##azine
maxwell
torque
u2
vh
zr7
tap
deconvol
polariz
##cell
agil
metamagnetic
indentations
##a¸
##a€²
dimple
tis
nd0
##last
downward
collision
2x
##102
plutonium
correlates
plastically
exchang
nanofl
315
strik
fractures
validate
relates
conference
231
fellow
agreed
516
fan
photographs
±1
##lee
sial
unmodified
agilent
kpa
5mo
microt
mind
sdc
serves
wafer
##al3
flows
218
##002
spiral
strictly
pdos
μg
conjunction
durations
dumbbell
##iw
grants
signs
correspondence
##ectively
153
147
diffuses
quadratic
coh
hafnium
##ritical
minimized
balanced
sexte
hgo
##inson
oli
north
bad
computing
anionic
degenerate
##irection
cdo
gh4
jm
5c
zrx
insets
849
synthesizing
paris
locate
iq
c11
tih2
dynamical
##711
poison
emerged
##fesi
256
fluorescent
##n3
finishing
introduces
##625
ole
south
vivo
245
quasicrystals
fused
cu4
lear
ln3
##hole
admin
##first
overview
param
crystallisation
yb2
protr
freedom
##ensurate
false
professor
##forming
nfs
association
distinc
##i¼z
960
vide
drv
chromatic
division
feo3
rhod
##forward
unless
1970
adminis
v4
##dew
publication
thinning
##cel
314
nts
##orbs
thixo
baz
qc
relating
apatite
cof
scienti
exposures
##10445
##hg
passed
misorientations
rim
health
york
delivered
envelop
merck
manifested
s10445
arri
conductor
247
hydroxy
registered
710
tape
proxim
intact
spintron
ban
mercury
kumar
particulates
art
manage
kinematic
##inally
drift
constitute
##bre
167
##lim
alle
share
carboxyl
aba
680
impacts
ba3
lamella
printing
##night
node
perdew
claimed
skeleton
lani4
abstract
bj
##alloys
cocrfemnni
008
∼50
255
seconds
aluminized
cataly
moc
##winning
sno4
##hydroph
enlarge
126
18r
ipf
n0
##ered
1979
happen
surprisingly
nanoplates
compress
cytotox
575
island
ge3
controllable
overnight
1080
i€
retur
potentiostatic
m−3
squee
suppresses
288
manifest
139
δf
##x19
mrr
hundred
i2
##orn
marg
boro
ut
desorbed
pmma
polymerization
worse
braze
075
preheating
recal
129
laws
superhydroph
micr
drug
##120
zn1−x
fif
epitaxy
cr2o3
correctly
s03048853
heater
2π
##alo3
behaves
s002231151100
edition
2al
straightforward
finger
task
as2
multiaxial
jiangsu
auc
san
##men
conductance
templates
precipitations
insol
colored
##oxidation
tanδ
##gl
gr13
sr3
gains
polycrystals
s002231150900
610
m0
nak
localised
nl
##rific
pnma
polyhedron
fractional
233
publications
actinide
ag0
pseudoelastic
scheil
##ono
selenium
polyp
src
sequences
increments
scand
occasion
wrapped
discrepancies
195
likewise
sib
##occ
a5
presently
sht
brun
##0003
seriously
inhibiting
lamg
bombard
guide
s002231151000
thom
lax
triaxial
sacrific
possessing
##integr
sake
stellite
crater
considers
waven
doses
pac
##n4
si15
supercells
ellipso
vx
fibrous
rafted
sen
fecral
##get
kbr
incl
repul
partials
shu
pr2
134
avoiding
##109
approximations
jal
wm
valve
transactions
zrn
biodegradable
darker
s016766360
mechanochemical
4p
i11
δε
collinear
024
345
wavenumb
intended
016
instal
inevitably
snx
polaron
jr
interfer
517
shared
sc2
bao
corrections
dynamically
seemed
mit
triangles
132
ferrous
dipolar
k3
μv
399
alb2
accounting
examining
spectroscopies
cnf
implied
##ords
demands
mim
colle
adherence
##ower
comprom
cheng
agn
communication
inver
roller
c5
absorbers
##ushing
pretreatment
b5
##193
nearby
##prof
pld
halide
choose
residue
##aº
##pread
in3
##ames
pda
biomaterials
1120
bacter
itin
i13
152
drs
dmf
destroyed
siox
signature
thermop
vor
confidence
dies
behaviours
##change
classification
compliance
srs
standing
dong
spheroid
alcocr
analyse
ctab
suppressing
stabilizes
lagbs
notation
observing
xx
nanopowders
##acl2
875
wides
incorporate
virtually
superplasticity
312
##qj
γʹ
intensi
o11
221
fcg
deconvoluted
##cdd
shockley
##a°
5406
widespread
sige
6c
song
uncon
whisker
relief
weaken
ensures
s0921
unamb
evidences
condensed
##bted
hts
drawbacks
##ipient
##mpl
254
excitations
exit
substance
co7
238
##04
##ge2
282
codoped
mail
extens
shortest
hiped
evolves
kirk
microns
unambigu
##uv
kle
softer
incipient
ultrasound
##sto
gw
##ysical
school
reproducible
##iy
lanthanides
inhibits
manufactur
plated
353
ensem
nanoclusters
zb
gce
157
##173
separating
6a
pouring
192
pumping
protected
##aters
alcr
##ifi
anch
156
ern
2cr
oo
zm
aw
##ouse
##oks
fellowship
2nb
7000
outermost
firing
disperse
logarithm
∼15
covers
196
tangen
166
##asted
plau
##ropies
km
##vy
##amoto
valley
accumulate
##jiang
centres
occupancies
photos
##ropyl
stabilizer
##elo
alternate
k1
1010
##rolid
voc
##lographically
lighter
paw
zeol
∼7
hap
xen
203
backscattering
hh
jin
constituted
compute
chalcogenides
disadvantages
##p2
##ymp
ferroelectrics
1000°c
bronze
regen
weights
peculiar
allevi
wen
ybco
voltammograms
sharper
smith
wedge
reductions
pictures
i²
##aterial
deduce
pipe
distinctive
week
promotion
kiss
tilted
insoluble
recycling
tangential
visco
##urbed
8000
exceptional
##hydro
m7
focuses
feooh
striking
g5
temporal
argued
saving
cab
##ins2
tds
hybrids
activate
laminated
superelasticity
mo6
fullprof
x1
vaporization
stretch
s−
filament
cis
eul
cdrx
repeatedly
chromaticity
transmit
unidirection
liq
masses
##br3
cermets
imperf
182
h−1
shall
fos
cone
305
tig
##2000
beams
percolation
023
grades
deviates
electropolishing
fgh
isoch
defective
lix
158
toughening
gdc
disproportionation
optics
nanocrystal
controller
structurally
172
##odis
wasp
tilting
##˜a
decided
cet
slices
qi
serial
dang
cnfs
sialon
3s
355
##l4
##plus
pd0
##neath
unde
underneath
vanad
administration
grids
stock
ge4
1223
cd0
coales
cooperative
catio3
insulation
hinders
immiscible
590
nih4
stri
scin
generator
nb4
##ibly
smoother
remanent
lu2
itinerant
##olec
restrict
suz
193
∼30
##arth
mcm
##orable
variability
cylinders
infiltr
1976
##zy
##tizing
photoelectrochemical
##elocal
cel
ald
walled
extensometer
blu
022
cuzr
primitive
ge0
171
265
topic
labelled
hrs
demagnetization
##bling
delocal
##rowth
232
5zr
##iled
frustr
trem
241
plasmon
raise
##abe
transus
thi
versati
undergoing
mea
825
a±
user
188
modifier
adopt
rounded
gex
az80
mitig
##1a
##acc
o10
isotope
bus
sb0
screen
repulsive
jalcom
brom
multif
identifying
photocon
##cl4
emerging
relaxations
diffusive
aggregated
sha
months
dissipated
opportunity
v5
##agon
ebm
##reds
##eco
connecting
accessible
976
##oue
refiner
##athin
lmd
lico
w0
aluminizing
teo2
aeron
nonetheless
lsm
situations
proximity
ew
##4a
fct
148
delayed
suzuki
##istors
bode
presenting
μm2
powers
advances
count
superhydrophobic
hundreds
s100
mgal2
adhered
9°
prolif
inflection
pce
##onate
frozen
tizr
ultrathin
l3
##103
volatilization
wo
colors
lorentzian
muffle
defining
bi4
cascade
thickening
insensitive
##aguchi
caco3
##123
s0022
adjustment
yv
εr
heights
tailo
spontaneously
viability
tailored
##yer
##eller
escal
9al
aeronau
h1
##ni5
248
indirectly
chlorine
microwires
preferable
circuits
adapted
crystallography
##eting
##tra
moo6
submitted
cspb
##omorph
6h
cd2
fillers
scintill
1977
windows
ostwald
##uan
##dw
harves
economic
3y
##anate
carbonization
cycl
unaff
pumped
destructive
183
propagates
cubes
virtual
##bled
465
draa
fuj
∼8
##uh
thio
siever
oxidative
159
##harmonic
pist
xenon
725
aœ
##asc
ni20
home
207
9h2
ly
##rose
nanoflakes
icdd
##uous
##time
##106
geometrically
adjustable
##imeter
enabling
##a±
##recipitation
polysulf
fluids
probabilities
sb1
ww
xiao
##light
microv
1974
##feo3
deteriorate
waals
lsmo
tunn
restriction
ir3
unaffected
bent
selecting
znte
siem
pr0
ultrahigh
in738
cu10
subsystem
529
peel
180°
waspaloy
oly
list
kissinger
ton
cu50
argument
elastically
##coming
speaking
##sky
highlight
agency
hir
hosts
incremental
s002231150700
##voir
acetylene
chr
nitrates
experiences
mg5
withst
nanoph
fj
840
##oules
5fe
146
aa2024
pinned
extrapolating
820
raising
reservoir
##ilayer
elab
developments
nanocrystallization
insights
228
b20
ti64
happened
circumst
##ats
nanol
centrifuged
shield
mql
jan
224
rotations
si16
mg12
cl2
fecl3
recharge
kub
##ivers
singh
deconv
##dated
repulsion
3rd
vt
##x20
mesopores
##qus
virgin
##fr
bund
adsorbent
sb12
o1s
destruction
suppose
cax
##ui
antiferromagne
vn
##ionic
agglomerate
6b
##aceous
survi
191
joined
tightly
sbs
##01
##angle
lialh4
s10445803
jc
##itant
227
electrocatalysts
scandium
αh
speculated
hn
automobile
##gal
##ral
1978
inhibitors
ptfe
flight
ln2
blocked
sak
cu20
plausible
olymp
measur
serration
micrometers
9cr
continuity
viable
hydrocarb
eid
scs
197
vl
sustained
c12
slipping
zheng
annular
portions
3d3
automatically
sealing
monotonously
electrospinning
8a
8b
switched
cermet
inlet
##eta
distinction
impingement
533
mad
fe20
prevail
inclination
rn
ud
≈0
276
dehydration
cohesion
participate
exfoliation
000a€
dodec
feng
video
status
approx
schemes
##bert
##doc
##water
pixel
253
nucleating
rump
views
hypothe
ruth
##ocol
mox
electroplating
siemens
730
##uate
##opy
tions
undeformed
tolu
kα1
##i¼œ
xs
concom
olympus
##undum
defines
guarantee
probes
cosb3
descriptions
periodicity
sca
crossing
definite
sdas
abruptly
actuators
conservation
##bn
cocrfen
thermopower
mied
eu0
##book
crept
##pdf
suspend
inserts
prototype
##orrosion
1zn
##ster
contradic
4al
trials
classes
magnifications
return
thinned
academic
ampoules
##activ
70°
waveform
920
rose
si14
skutter
##icro
##icated
shed
5p
−20
177
##00f
abaqus
inoue
simulating
diamagnetic
δc
##ez
fe1−x
script
nss
nether
1973
neutrons
categories
##trical
##etic
gr14
##ander
405
postdoc
sinks
bead
capping
protocol
disadvantage
skutterud
##idine
technol
beamline
5s
estimating
hre
##occup
electrically
scientists
≤0
##ti2
##005
poorly
sulphate
licoo2
237
programs
traj
formulas
adverse
doe
cs2
bodies
marginal
operator
aa6061
940
##690
##sile
keith
2zn
wol
pseudocapacit
##role
longest
interpolation
offered
880
tune
spons
thankful
suspensions
tremend
miedema
nx
sers
##din
phosphates
emphasis
194
predictive
##ilies
summarised
a1g
concomitant
δr
cuin
##175
fibres
sed
##9800
amino
##−y
deconvolution
intim
scaff
pulling
fading
tpd
simil
tmaz
william
s09270256
2g
ot
suited
##ounds
surf
individ
##207
places
cros
zs
##150
meaningful
requiring
al20
freeze
sadp
##hp
14h
243
##fe3
nodules
nip
##enko
igc
tric
##anck
##title
century
inhomogeneities
##si3
capacitances
seam
baco3
oes
roy
176
retains
4h
trailing
families
##ighting
replic
closest
##occupied
margin
homo
corundum
g4
cowork
handling
##flu
unable
samar
149
##back
so2
mnga
vg
proceeded
premature
bombardment
carbonaceous
sr1
cust
##orst
##ahedrons
645
cacl2
##itos
lay
μω
##493
gh4169
187
##fluor
alnb
lipf6
##08
poles
##oud
spaced
inductive
attributes
euler
stann
bac
consequent
prede
tauc
missing
4800
semicircles
unoccupied
283
advancing
w6
##apatite
postdoctoral
we43
filtration
blende
ridge
gns
scripta
415
dys
cu30
switzer
##idium
186
393
panels
##romatic
tensors
unidirectional
te2
frank
ei
ye
−6
aper
hone
##endall
multiplication
brunauer
fn
emme
flask
converged
007
toluene
re2
ppms
cir
page
dataset
motivated
mose
yx
bacteria
issn
##olym
linewidth
stokes
automated
dict
cu25
sensitiz
marine
cscl
suspended
individually
##mu
impede
debonding
sofcs
equilibrated
##ote
egi
sif
wq
y5
coexisting
passiv
fisher
libr
##log
garnet
##lich
##yre
coworkers
unav
blended
189
subtracting
solutionized
nominally
unfavorable
##1f
polyhedral
protons
acquire
diminished
disag
therein
##lishing
transforming
proliferation
##eri
209
sheared
repetition
##zag
##iline
switzerland
displaced
polarizability
cytotoxicity
##imolar
graphi
##4f
methane
gliding
permits
escalab
##ro2
deleter
##ophysical
ia
pb0
s00295
deleterious
inexp
alh6
##rium
aux
404
preceding
recalescence
sm0
limn
enclosed
##in2
bear
1323
##112
ruthenium
failures
sisf
eca
hypothetical
##ih
quar
mbe
169
polyt
yvon
1975
fractography
ridges
ong
##koff
anharmonic
208
taper
sulfidation
##irradi
##aks
differing
pss
##ubes
f20
concave
critically
713
precipitating
teos
wyc
electricity
samarium
##atur
##sibly
239
getting
##omers
equimolar
174
cr20
paa
border
interparticle
385
2f
zigzag
9zn
disrup
scn
zn4
switch
##a°c
206
came
planck
fren
spinels
335
vbm
conducive
##lo4
rotary
2m
615
h13
##yll
carbonyl
##itosan
steadily
selectively
renewable
bypass
zr1
##heat
solubilities
##gory
instabilities
neck
##isions
5ag
##ohes
##kr
csl
##isi2
foreign
beaker
chitosan
discontinuity
hpd
##txt
drilled
obeys
keithley
##cated
hfc
##odisper
##sson
illustrating
elongations
##bridge
cpa
provinc
connectivity
tellurium
alb
995
aº
option
delivers
ideality
coats
bioi
risk
fly
really
densely
pixels
crosso
##rc
##wo
##aram
delivery
fash
##ey
ecorr
dich
##cation
##cho
auto
muffin
clin
##transaction
i1
inevitable
dav
xc
##eloaded
dateloaded
##9700
extraord
webpdf
solidify
##titlen
##disloc
duty
##transactionid
##titlenorm
##ahn
##isn
sicn
price
loos
responsibility
operative
##xa
178
shut
levitation
nah
operational
satur
262
coarsen
persistent
##adaic
wyckoff
gete
179
reader
superconductor
770
lighting
##emission
deeply
018
##lf
nicr2
318
ceni
sulfuric
975
concepts
photonic
5083
priv
rk
10−10
wz
1550
scrap
##search
236
objects
jun
helm
escape
a°
in625
##×10−3
i³a€²
netherlands
lq
weldability
glycer
rechargeable
rve
10cr
624
##lications
asymp
229
equival
bafe12
rao
facilitating
##khorst
##iving
agno3
m4
##tened
800°c
##cufeni
faradaic
multilayered
talents
1972
tempering
am60
fron
##ori
compressibility
rafts
mpd
liang
freck
fashion
kf
anders
overlo
summation
prisms
##ession
##elts
spent
se4
bipolar
camp
##tier
cooh
exciting
rom
laue
nrf
inexpensive
disturb
gy
##gm
035
y1
adopting
horiba
granules
decohes
nonradi
phi
researched
##eth
7a
##750
indexing
triggered
choosing
mbj
017
m5
##lv
##enz
##153
##1b
hydrated
keyhole
mose2
aa7075
counts
computations
tu
−t
##iors
enorm
relies
termination
api
fe12
widman
tb0
heterojunctions
925
contacting
substitutes
judd
lum
photoemission
semis
c1s
2y
##ices
gathered
united
physic
periphery
ji
ga1−x
recoverable
o13
2100f
cited
900°c
scaven
similarities
##enna
a¦
son
##ji
symp
##hm
cott
spaces
2200
cambridge
nug
##hof
recast
corrobor
monkhorst
dedicated
mobilities
som
pfz
ros
545
##2030
cookies
ensemble
bab
name
burke
mpb
canada
wavy
approached
trade
kirkendall
www
convenience
degre
##x3
altering
o15
535
sinus
hollo
10−9
ay
##ilm
austral
dms
wds
tempera
baths
immobil
##204
combines
321
iteration
rely
287
5sn
interiors
jobin
##nbt
tritium
emmett
enters
##fe4
saxs
nanocrystallites
##p3
detwinning
microcrystalline
anova
u3
##ref
dividing
organized
contaminants
peroxide
category
5y
301
weakens
cucr
eco
nova
395
eels
##urance
242
3h2
4zn
##do
paraff
hexaferrite
buttons
ddrx
5ni
##py
##uchy
251
opposed
γ2
maybe
capped
hv0
crossover
eam
analyser
hl
##feb
erbium
decohesion
stripping
i¼m
lmo
relativ
institut
δsm
lamin
interstices
lsw
highlights
cementation
verification
fringe
anvil
explaining
seeds
questions
applies
diffractometry
confirmation
sequentially
withstand
provincial
vienna
##×10−4
rumpling
613
tif
million
la1−x
castability
##9900
##ira
williamson
vanishes
##ographs
sss
##silon
##irradiated
##rov
chron
nsfc
histogram
invar
dy0
ni25
servo
oim
cr5
button
resolve
σy
cauchy
whereby
485
##accept
1140
wp
co5
paraffin
mnal
crevice
appreciated
vast
σ0
##opes
justified
##statten
rul
1015
##astroph
adequately
fossil
a¯
tro
indis
icorr
polyan
##ylene
thermoelastic
##isms
sett
7cu
lps
##itsch
##ny
226
##06
343
ho2
superdisloc
catastroph
triaxiality
isol
quasicrystal
portable
##ithms
contours
burning
4e
4π
mω
##opharm
ptr
##oing
diminishes
semisolid
al9
##ries
sonication
##rolidone
##oz
cr23
##facing
hybridized
martin
810
bix
supercooling
tc4
chemisorption
suffers
h0
databases
conductors
398
nk
attraction
##stoichi
mech
aa50
overlay
interplay
cacu5
wled
solidifying
discern
ics
stray
hpdc
releasing
rows
lioh
ellips
##uit
1040
metalloid
##101
hydrazine
expands
ferric
dmr
bk
##mat
freshly
implicit
abbre
monodisper
##itride
p6
##izn
cr1
intercalated
custom
hydrophilic
beads
fluorides
tom
insp
860
depressed
populations
sublim
merely
dissociated
iz
stay
bi1
ongoing
##flow
pointing
squeeze
##izers
##duced
cdx
community
sinopharm
rolls
422
##coat
zr50
passivity
reconstructed
##ality
clamp
joule
co17
delith
i9
sort
tma
184
##8x
##glow
attentions
abbrevi
kan
p5
pressur
ferroelectricity
diffracted
amongst
##a¯
600°c
buckling
team
sia
##istor
narrowing
tailoring
xrf
249
afterglow
4f7
polish
pedot
449
xr
lamb
lab6
classic
a−1
inactive
carl
##met
ampoule
looking
sqs
parametric
mz
arro
consequences
organization
ws
1070
wafers
suffered
##balance
entering
inverted
2fe
profilo
yi
##211
characterizes
heavier
entry
decrement
dispersoid
##186
inputs
264
peer
initiates
gz
lacking
##alled
unirradiated
concentrate
guin
refriger
i3
##nl
##oured
underg
pull
##5093
3600
yvo4
##sio4
indents
taiw
doublets
measurable
019
postulated
imaged
landau
b8
gatan
##ione
beryll
sustainable
633
seaw
rcp
ge6
fission
##135
050
misch
hk
sea
macrop
τ1
##ja
nugget
ofelt
##idene
##hex
pauling
ago
emergence
widmanstatten
taiwan
coni
russia
definitely
drawback
##ifiers
930
259
d022
derivation
fx1
##as2
invest
b7
gr15
zr5
257
brighter
summarize
##cer
##hal
synthesised
pca
paint
beside
eliminating
antisite
seawater
pes
priority
clarity
retarded
##amura
blood
th2
ni40
289
cloth
spindle
intermediates
substructures
actuator
perature
##imer
try
po2
desorb
detecting
weighing
retaining
economical
lose
b10
patch
##ocal
ni6
arcs
sn6
##113
500°c
isoprop
##jin
poisoning
fifth
##osal
reco
progresses
protein
hydroxyapatite
disagree
sinusoidal
##inating
string
magnetiz
manifests
bacterial
##nge
nucl
tempered
undergone
peened
308
hoff
relativistic
rewr
##mno3
molybdate
actinides
richer
tremendous
338
striations
exec
mesos
##lrq
czo
glee
rual
fe50
irradiations
grinded
jahn
##fb0
hf2
multifunctional
p25
##imoto
photom
polarity
3500
constitutes
k−2
thr
cr7
##eman
mo4
1014
srz
dispers
##mn6
microcrack
##erite
exe
oxidize
irr
circumfer
expanding
blan
exploring
achieves
234
aiming
transmitted
##x2
##rp
##acs
pd3
si17
s0079642599000055
a©
##−0
laborator
yuan
hun
ensuring
coincidence
aucu
piston
hidden
##ilibrium
##foil
regularly
centerline
endurance
leo
optic
electromechanical
##growth
##urea
authfir
261
thermochemical
m23c6
lean
alteration
slips
aur
thread
##1609
ratch
bohr
3si
glaz
##uly
ta5
versatile
045
464
oi
hindering
sponsored
gleeble
suit
si00
regards
##≤x
analogy
asympto
guinier
wells
##zhou
supr
##605
dispersions
332
slit
multiplet
centrifugal
##nz
fe80
##plier
##ecomm
quoted
##189
idz
electropolished
ernzer
435
##holtz
cef
cex
swed
t2g
subtracted
al15
scalar
fluidity
unambiguously
7b
hexahydrate
ali
si20
317
spalled
disintegr
silane
circumferential
zrco
##196
dssc
sds
se0
formations
##ungs
5418
blow
deteriorated
formers
lro
∼40
##108
complexing
exclude
sunlight
surroundings
areal
##eu3
1013
assignment
2k
simplest
emery
leaves
resembles
##quisite
sine
ni8
453
irreversibility
fb
stark
##99000
##apacitive
passivated
coincident
tss
polyethylene
##itrification
−y
252
emerge
protrusion
tea
cuzn
designs
conflict
sp3
valance
nif
##abs
thermophysical
mcc
267
metallurg
nanobelts
495
pds
##iga
hollomon
6si
970
##ana
##502
axs
dealing
518
board
investigators
polygonal
8ysz
##elist
phenol
do3
zo
helmholtz
nose
1960
orientated
incomm
diffractogram
restricts
rectangle
peng
∼200
##key
displaying
benzene
learning
installed
alcl3
supere
302
market
##60319
hw
##ney
fea
1573
402
dispersing
s0360319
675
##eca
bench
osteob
tbs
zx
##332
mappings
slice
differentiation
tooth
ferm
ensured
a½
ital
ment
700°c
exploited
2mo
##gens
##anov
heterogeneities
1017
origins
eh
r0
utilize
rewritten
yz
±2
271609
neglecting
remarks
##xchange
##isph
whate
whatever
d019
ih
kc
obtains
ru2
scarce
bay
rotate
aperture
4zr
##003
functionalized
exponentially
hddr
2zr
vd
xas
372
elucidated
##recipitates
hydrate
wavenumber
##ives
##107
##kets
##bi2
micromechanical
honeyc
vin
##vine
##rosymmetric
eos
constantly
homogenisation
lond
##imet
meta
nucleates
##mitt
exposing
focal
revolution
feti
mns
lubricating
superexchange
minerals
nb1
##286
##assivation
nonradiative
##nos
stro
##ariant
##olecular
331
##induced
catastrophic
413
doctoral
##aœ
terbium
contrasts
wastewater
2si
rw
think
internally
scholarship
tep
cui
overheating
##tc
##insically
movements
##lux
surfactants
isochr
6zr
8c
bzt
kaw
##ulose
exempl
immediate
aromatic
lid
tellurite
fol
m247
psn
chelating
architectures
implications
impregnation
soaked
stretched
justif
asm
605
0000
##9000
simulator
photoelectric
occasionally
weib
antiphase
266
555
connect
yig
##g−1
kelvin
investment
830
bon
1012
fulfill
favoured
residues
williams
rain
ga1
2ti
mich
breaks
##aya
raises
zz
transfers
optimisation
s1003
##itch
detachment
414
transitional
handbook
nmp
10al
facul
repeatability
paraelectric
fe73
znal2
declines
formaldehyde
hemisph
borohydride
nanometric
009
hrem
790
wood
1019
emphasize
336
##hua
bue
sampled
ideally
getter
absorbs
fes2
uhv
si19
##away
##403
borosilicate
prolonging
appreciably
lfw
##ints
glycine
alc2
honeycomb
kal
co9
lmto
dib
feb
optically
##202
nbo
transients
exerted
##nan
sched
transported
ytter
##adequ
nanograins
enormous
ernzerhof
3cu
peier
banding
facing
cirp
plenty
##tity
##205
imperfections
dir
energetics
thiourea
1021
##strained
arguments
c7
##erical
6326
pools
physiological
f−
inadequ
promp
gasb
stoch
zeolite
f6
##nc
##kovich
arsenic
london
b12
10000
linking
##amper
czech
coherence
cemen
##onoi
##emann
244
magnetoelastic
##jee
stm
aluminate
absorp
asymmetrical
shin
##getic
cuins2
stepwise
simplify
materialia
##comp
nax
2mn
a15
abd
znco2
establishing
scholars
030
3n
peierls
##ented
overlayer
targeted
spatially
593
modifies
filters
voronoi
cementite
##r1
alfesi
retr
recrystallised
##3d
ink
moderately
envelope
iµ
##1500
arrott
daz
##lem
##795
excluding
satisfies
##tte
fractal
langmu
jl
15cr
ecae
isochronal
mand
leave
324
intrinsically
1180
g1
ix
##aˆe
ytterbium
##gc
langmuir
o0
mnps
cahn
400°c
nimn
recycled
contradict
γ1
microelectronic
vacant
pillar
αhν
445
7si
##owski
opened
exploration
topology
divergence
##x0
cr4
depict
rr1000
fracturing
znsn
258
linh2
explanations
tmp
##haw
ta0
kas
pxrd
ine
decays
win
##235
violet
proportionality
##parallel
algorithms
##iro
photoinduced
##ider
unified
##feconi
ept
##ople
methylene
fulfilled
extraordinary
##isive
∼25
##ures
1060
brack
delithiation
##kd
chose
fe7
saturate
interested
1zr
5093
shortening
deviator
cooperation
##orosity
##stre
presumed
##660
##adow
wax
inconsistent
sublimation
goss
shortened
martensites
278
nsc
pz
##utal
##tries
establishment
s09215093
##olymer
##163
lno
populated
hcs
polarizations
274
meshes
award
tendencies
collective
susceptibilities
physicochemical
429
prohib
vertex
##11000
etchant
p63
##mpa
356
psd
033
lock
488
comprise
mg6
378
distinguishable
##olk
metric
##atized
photodetectors
e3
ni9
luo
exhaust
poc
decisive
1486
403
sensitization
migrating
##qw
recall
signifies
411
mofs
##100−x
gmr
magnetizations
##hler
##ola
satell
##i¼œa
##emet
characters
manually
binaries
splats
associate
chromat
passage
mcd
covalency
1971
spex
epilayer
donors
aerogel
1mo
stirrer
cztsse
in738lc
si25
defl
transducer
concre
supers
attract
ascertain
batches
09258388
##echnology
##tini
alad
ijkl
##bi3
##uy
##olor
restor
articles
isotopes
monotectic
##ularities
sibs
preserve
zeta
people
succeed
363
cheap
t5
brightness
je
##148
barre
bag
##arep
thirdly
nimoo4
oxalate
433
−30
##tos
weldments
e0
js
len
wise
1160
ding
##lt
mgcu2
rigorous
college
##uclear
controversi
##dom
##ellar
si18
macrostructure
bjh
laboratories
##gels
forth
##aborate
612
freely
sbx
elaborated
wavegu
##vac
hydroly
shorten
fastest
conical
propensity
401
fixture
faculty
outcome
xia
##orily
296
jack
co1−x
lapw
##noble
sandwiched
mgcl2
dropwise
gnp
traverse
##tious
1969
burst
##arepsilon
co20
undou
collisions
rh3
##a½
a6
∼9
pyroly
comments
irreduc
cac
##redi
##chrom
##oping
pertain
##azaki
##mas
##imn
periodically
supercritical
s002231150600
synergetic
american
∼12
visualized
rejected
oxalic
incommensurate
aladdin
translation
##articles
worthy
brazil
manganite
polymorphic
photoanodes
gene
##wins
lnmo
labs
##comes
hat
vul
hardfacing
eqn
smoothly
##xl
boat
superni
iodine
write
δρ
##aves
##iber
calcining
rougher
jian
profound
ein
##ius
te0
so3
irreducible
##001
##chin
##rile
hash
berkovich
##ao3
lh
wit
α1
##ti3
458
cbm
privacy
modest
h9
turbul
constructing
rocking
bainite
prere
floating
nsf
hazard
iw
ptal
##andong
probed
##755
294
macrosegregation
lift
i4
##oting
frames
damages
compromise
##mt
crmn
291
urbach
693
##2a
##tetr
penetrated
s09258388090
##eed
cfs
tzm
undoubted
tanaka
##h0
653
##truct
cantile
depar
pulverized
u720
iner
valent
mnsi
electrocatalyst
radioactive
ruled
theta
mask
065
##tun
##otropic
stud
filaments
297
##a€€
9768
dyn
ja
leica
45al
deforming
guidance
old
281
symmetries
soph
jones
adatom
simpler
tialn
alsi10
mocvd
##ryl
##vance
csp
6s
eo
qe
246
broaden
orthoped
##dong
##icz
reuss
placing
suggestion
a€€
sponge
deteriorates
pins
forsch
phased
agitation
505
##cl6
barely
routine
##alo
##org
intermitt
##scr
hydrided
helped
39023
infiltrated
##7b
slcc
pt2
##oku
stems
iterative
ejournal
csi
##t00
photorespon
quarter
322
electrochemistry
srco3
push
cun
fuk
268
fuller
yy
am50
iridium
##hel
##itated
finemet
nonstoichi
##thane
xin
thf
algan
coaxial
##ember
dischargeability
fails
resource
bump
pwh
##with
##acet
agx
satellites
##cz
bounded
##190
traditionally
sextet
##hydrox
microvoids
##copic
##aint
shel
carbons
vox
##itary
microalloying
motions
ni3al
satisfactorily
congruent
reflux
antiparallel
icosahedra
##quilibrium
##iley
graphitization
nu
xa
1423
subtle
polymorphs
twip
unsu
concluding
##3889
ppb
thesis
##crystall
resistivities
ingredi
alternatives
pearson
allot
1018
locates
383
formulae
dropping
positrons
ming
worst
347
supra
agi
looks
optimised
##2d
cmc
wheels
dbtt
claim
catalyzed
photoconductivity
kik
vehicle
nanopowder
anelastic
asper
plung
modal
degassing
3ti
cage
franc
368
tianjin
intermix
opin
spheroidal
squared
conserv
chemisorbed
lambda
τ2
doubt
elliptical
hatch
−7
craters
superheating
bax
inserting
psc
ttt
tio4
364
##af2
hube
427
307
poorer
sophistic
stag
crystallographically
dates
acac
##ostatically
prase
segregates
272
tsl
y4
promise
##nb2
evolving
clinical
paren
##jo
grune
widening
streaks
prepar
opt
##oxylic
lcmo
isomorph
chart
desc
##×10−6
smco5
##utions
mnbi
median
tailor
1nb
pk
pest
zhong
capsule
crosshead
intersections
tank
349
yo
##elite
forest
##6a
leed
necessity
yosh
zr6
##754
##saturated
379
amine
poling
zr20
laco
##u2
gdx
harsh
illuminated
vanadate
bromide
1si
ape
jn
##umann
confocal
nicolet
sediment
##oxides
##liness
sieverts
pbse
°i¼
sear
poled
309
##issolved
miy
pwa
telluride
undoubtedly
gpb
h15
delhi
weibull
intrigu
counted
monov
cos2
gzo
##ppa
antiferromagnetically
auxili
775
wd
−8
##amat
femn
lone
almg
oxidant
sublayer
suction
frameworks
dipping
unw
##ava
collect
unavoid
ie
w3
##char
dog
10−12
rendering
xml
sticking
degassed
aµm
##qing
corrob
operators
ik
arrest
homolog
a³
tescan
nbn
broadband
cys
kmn
##stage
admix
embedding
settings
sieved
s10
585
inacc
##nik
born
asymptotic
##115
48al
insulators
agnps
6zn
##×10−1
##fy
##ito
120°
tunnelling
praseodymium
mats
complexation
dif
##thing
equilibration
principally
tunability
management
rq
cryst
##isher
achievable
slurries
berlin
harvesting
omitted
565
lcr
##ppm
##te2
tungstate
##opyrite
sensitizer
2×
sket
ambigu
##4b
thous
multiph
ether
1773
positional
gruneisen
##xp
##tia
##esh
declined
##iamine
1968
306
271
assay
nonequilibrium
satisfying
uo
jsc
superficial
##like
ligament
codeposition
inadequate
auxiliary
a®
rice
cufe2
vrh
chance
slows
c36
retardation
sell
##yo
lever
394
recoil
nal
##dt
##quin
outlet
microsphere
prevailing
ni49
relevance
2v
gmi
seld
##icu
cow
odf
te4
fe40
##aric
718plus
vf
ya
##2b
asa
nb6
clustered
279
refrigerant
rubber
intriguing
##mol
chap
hf0
amplifier
396
letter
092583889
suitability
stear
prescribed
##metry
292
biggest
molds
undercoolings
microcrystal
photodetector
zto
277
urgent
indisp
##stream
xb
##6e
proceeding
fragmented
suddenly
dangling
seldom
1650
formulations
excitons
degreased
tissues
yong
graf
sophisticated
wrink
##ophosph
odd
##004
discr
##enetr
scratches
beryllium
##fe0
marginally
lis
##oming
afford
kinetically
mrs
enlargement
singly
##ahedrally
worthwhile
eye
##thesis
##li2
normalised
histograms
##mined
igzo
aun
brent
##itrile
solidifies
40°
2212
coprecipitation
dominance
348
nj
elev
airfoil
##ris
prevalent
indications
sacrificial
##tenance
##303
sessile
##143
disagreement
##field
asr
cellulose
casted
projector
ultrasonication
pyramid
##elted
##igration
reheating
1100°c
diethyl
∂t
singlet
pyrometer
scarc
restrained
nbx
ortho
puo2
##ends
s00223115183
sulfurization
merits
electroplated
aao
notches
letters
419
pcs
raj
phosphorous
preforms
##uds
409
553
lastly
centrosymmetric
prefers
cumg
##lw
upset
##127
packaging
s0304885
in100
touch
impar
circumstances
hart
men
##moo4
s09258388203
463
cj
i8
yolk
twist
fruit
##oked
reversibly
nanod
sulphide
reading
singular
neighborh
alcocrfeni
fran
##136
river
bulging
varepsilon
matlab
maintenance
sral2
favorably
sectioning
tetravalent
ssi
1967
npc
emerges
guangdong
quinary
rigidity
motor
ov
##1x
inca
grating
cual2
frequent
constituting
thermomagnetic
attains
wn
tco
voltammetric
stochastic
orthopedic
##1730
455
doubly
miniatur
zr10
buff
538
kd
##xrd
##uz
proving
486
cuco2
gels
##sium
traction
smat
dielectrics
zncl2
cryostat
rhodium
785
titration
pwht
albe
abo3
12si
frustration
cral
9999
##uka
dosage
linbo3
xp
backward
renis
##agraph
avi
qing
vials
voltammogram
577
##avimetry
brentano
jia
imagej
knowing
diagnos
337
040
qs
##stress
4n
ecs
word
comoo4
nanoprecipitates
realization
attracting
863
msc
##ˆa
tof
##ensable
invis
rationalized
averages
exchanged
falling
nanofiber
expectation
cucl2
inherently
taguchi
##pyr
##yt
mg4
actuation
i¼œ
consumable
accessibility
mpe
pand
−e
≥99
maximize
sac305
globularization
spintronic
spps
mechanistic
syntheses
reorient
ori
##illing
chromate
apbs
phosphoric
hexaferrites
##a€™s
king
shadow
entered
357
truncated
dyspro
b15
##box
##h1
diminish
mutually
s9
vertices
edited
protecting
397
overlaps
fractographic
hypers
jac
jxa
vib
##afluor
ish
##ilms
gr16
intention
subdi
351
epd
electroactive
bulks
kikuchi
naz
509
##quivalent
torsional
1t
##gic
##orate
curing
pulled
##zno
deviatoric
corroborated
521
conicr
269
devitrification
s016766360500
icsd
##357
deviated
busch
##m2
intersecting
alters
i¼i¼
aˆe
##therm
lev
ssa
##oloy
srr
featured
segregations
detached
pressurized
paragraph
electroph
halides
achievement
biocompatible
dash
h7
projections
adapt
northw
dysprosium
ni1−x
activators
extracts
##burgh
∼300
ising
upto
300°c
##inforced
nanoflow
indispensable
543
##uma
raft
cqds
psi
##yfb0
ni60
smear
stoichiometr
998
helical
s13596462
contaminated
##s−1
cu9
selenide
compressor
1ca
ascrib
lao
##ette
367
##1e
weakest
ferromagnet
pati
shandong
conjugate
solutionizing
mo1
encourage
calif
327
repeating
pyroelectric
irregularly
unreinforced
528
aj
integer
tribo
pseudocapacitive
eigenval
pci
wf
##esp
##uniform
457
ellipsoidal
lj
fe83
slater
artificially
controversial
##ectory
analysing
continuing
entropies
pigments
bat
##umoto
oxyn
niooh
densified
selenization
pech
fe15
microscale
s2−
437
##gard
zn8
kbar
##elmer
reality
kron
o−
αp
##yan
diffractions
334
niob
δl
al60
grenoble
443
trajectory
δx
##tage
undissolved
productivity
penetrating
answer
manufacturer
nish
petal
deformability
carburization
3h
##±1
degeneracy
##316
decoration
repassivation
compactness
mpms
californ
pushed
hysteretic
lvp
h8
elec
lew
sn1
##651
fe16
fap
##6d
xie
##enes
##otherm
##roll
la5
ssdi
hunt
bridges
convective
feder
##los
352
thrust
##cu3
distributes
polyvinylidene
≈1
misf
renishaw
vort
discharges
pigment
congruently
##bolic
667
canted
##metric
perkinelmer
##imethyl
ca1
##vices
homologous
vanes
jas
##gam
##alite
1673
preferably
deuteride
c44
efg
##dam
##anth
##eda
chong
abilities
speculate
finds
pink
##enses
specification
10−20
converting
military
immersing
california
fire
##1d
##¸©
fom
luc
→5
conce
1260
adsorbate
interlayers
doubled
##enyl
##anxi
carbonates
linearized
breakaway
alleviate
hank
yc
±5
dead
compiled
incoloy
deline
l0
gram
abl
##117
laalo3
assessing
economy
passivating
4th
kit
##4d
pdas
snte
299
programmed
dmc
rag
specifications
sonicated
shaanxi
−x
##ios
##179
sba
mtorr
datasets
##turing
##oka
lsf
alsi10mg
616
files
503
pfzs
dilatometer
##encl
terr
25°
##195
associates
##atorial
328
hil
ven
neur
tao
ferromagnets
spintronics
vortex
c60
##adro
charpy
arres
butyl
climbing
albeit
alex
1011
377
fesi2
progression
unloaded
dai
ments
μ0
##uven
monoxide
separates
profiling
your
zhe
##rog
##elve
metallization
resonances
concrete
ced
gqds
1965
determin
insb
e8
eps
tong
##nally
ce5
poland
##facts
punched
micropill
1fe
##uent
hearth
lrs
3115
##7x
##6b
##dynamic
house
τf
##5a
al25
alh3
stru
micromechan
389
aided
cannot
fe23
##scope
subtraction
##iyama
hydrocarbon
##ux
meantime
nd5
entrapped
890
mant
subscript
1966
nonuniform
##heim
topologically
cnrs
s0925838809027
cro3
15406
silicone
vanishing
conservative
compositionally
tb2
##aux
706
982
##inn
##enol
ruptured
pitch
si38
zr65
richard
evaluations
initiating
seeded
isopropanol
∼60
deceler
afterward
remainder
ligaments
valle
title
nomencl
eigens
dqg
→4
##3c
##t2
##logr
##osol
prestrain
##ophosphate
##ecr
##abi
sports
polysulfides
loosely
s0925838809027509
tort
##vp
##aky
multiplied
tam
fritsch
analytically
csf
trained
thomson
1cr
##tl
910
∼13
nanophosph
coag
##olysis
shg
1170
nomenclature
city
##rate
358
eroded
boiler
entrance
sar
ti40
416
711
##121
##124
blasting
synchron
opportunities
##zes
decagonal
biomass
fla
appropriately
explosion
lsv
pearlite
micror
pei
tcr
tisi2
##assive
exert
sup
##792
hoop
##ikawa
##hem
incubated
nanohardness
pbo2
intersect
benchmark
pbtio3
808
intimate
##icine
lafeo3
cantilever
2o
ee
sio3
filed
acceptors
fragility
monotonous
##estern
abbreviated
095
x0
##128
408
stabilizers
wien
kang
nib
##hybrid
externally
cameca
##eritics
595
nes
sau
call
fluences
s092583889700
forschungs
ehe
kram
alni
1900
##graphic
kmno4
##jj
##organ
6082
026
saline
micromeritics
participation
428
gross
les
##onite
crystallizing
breakage
camg
5ca
δw
388
discontinuities
715
−15
##ypes
7nb
##ications
serum
hg2
hemispherical
##5d
contig
flaws
explosive
##9x
##√m
##olv
stays
bounds
continually
mcs
pts
sas
##rell
##emed
twelve
graduate
scrat
ecc
##æ€
##ectives
##aga
1e
dg
deuts
electrochem
emulsion
avog
silicates
mischmetal
crs
nial2
valency
leg
opens
iodide
pseudopotentials
hed
hoc
−40
25cr
##752
614
##ager
cyan
ration
##→α
deals
crit
444
alternately
marang
aa5083
echo
##a¤
ree
dipped
cnp
vii
graz
fluxing
alo
##351
impeded
387
persist
protrusions
fim
o17
si24
precious
fuzz
cvs
avogadro
##teen
417
dst
gos
og
ua
##awo4
pt0
simplification
4cu
##8c
##izable
impr
overaged
blasted
sato
##ga3
peeling
skutterudite
5mg
mounting
chim
329
1200°c
bloch
fruitful
marangoni
nca
s22
splits
comprehensively
bczt
executed
prerequisite
tdos
cascades
suggestions
fortun
disreg
solutal
potent
815
fe10
fe78
reflex
comment
glycerol
##asse
mgni2
transversal
##enediamine
objectives
interband
si1−x
monomer
dimer
hua
##crystalline
denoting
chalcopyrite
hardenable
vw
dea
si22
vanish
ringer
ni30
differed
1280
broadly
ticl3
632
tl2
computationally
underestimated
##y2
meso
na2so4
mmc1
rta
##wide
microb
pollutant
coalesce
##activation
5th
euc
determinations
ferromagnetically
s026130690
##t3
##1930
##itrides
sextets
##7e
saturates
unavoidable
2sn
cip
co10
moles
firm
dun
##490
##elting
##oluminescence
##arded
halogen
profilometer
depress
pursu
neutrality
rheed
o3−δ
uniqu
362
3400
fmr
hope
abc
intrusion
i6
##hc
2223
hclo4
scintillation
struers
##a®
##nat
meant
16cr
hunan
t7
mnco2
superlattices
neighborhood
412
##mr
##zr2
grounded
oscillating
s00295493
3cr
bell
##ativ
##ado
srm
hyperbolic
519
##2k
fe75
800h
ticx
proteins
kleppa
regeneration
2l
bsc
δa
lani3
nav
inform
aerated
10−11
concurrently
udimet
intermittent
kap
oak
isz
planning
endow
##fenol
sib2
sir
376
s1359645498000
8853
ge1
vinyl
∼11
depositions
##gaas
0921
interconnect
adaptive
h12
wer
1024
twofold
##145
weldment
degrades
thomp
##nbo3
replaces
gnds
als
ni17
354
czoch
jar
ndx
##hydrides
##onon
##ticular
##sets
cecu
rh2
##bing
chipping
actively
banded
##fe6
microporosity
##pert
chab
##yrene
iacs
obli
refin
looping
antibonding
anchored
tar
##uw
nik
negligibly
smearing
zi
isolation
bipy
thompson
1022
holland
448
s13596454
warming
aviation
kx
##ona
spm
##209
mpa√m
slowed
382
monochromatized
rheological
worldwide
tas
##metic
updated
schw
s09258388173
##exc
aids
##tb
##702
fractographs
bifur
gbe
##uated
zr55
nfo
##8b
1964
##ought
erg
##oxidized
##chromic
##7d
toh
##chaft
manual
sinterability
collabor
374
compete
ilmen
reb
triplet
capsules
##7a
##ml
361
neglect
lshr
bei
histories
contradictory
unwanted
ble
−9
##co5
transferring
setaram
costly
thermogravimetry
resemble
3g
548
almn
revers
##fe1
purged
graphical
converge
evaporate
zhejiang
si23
branched
valleys
438
##cos
##8a
##−4
clay
7050
polyaniline
conicraly
amal
##oke
calcinations
molding
##theses
revised
##0930
8al
a¬
dma
effic
sole
1950
##upta
geo2
cutter
##sub
pertin
emi
physica
dmso
lpbf
fortunately
##lines
nm3
pauli
shaping
homogenously
hydration
3r
xero
griff
transpassive
einstein
5x
dent
si26
depolar
##ometallic
overestimated
czochral
kne
patterned
paramagnetism
rhodamine
611
##imal
oxidization
pseudob
##titions
##entified
crosses
021
s002230930
contribut
649
##stini
eux
homogenize
aa5
relieved
triclinic
authfirstini
deemed
##ocon
tm2
shaded
10mo
bo4
perturbed
do2
impression
superdislocations
restoration
3fe
interm
presentation
reviews
s135964629700
kerr
leco
cmt
srfe12
contradiction
jma
##dad
##qv
medi
##uda
appreciate
aeronautical
u720li
5mn
dj
jk
lad
pour
identity
releases
workpieces
readings
ilmenite
622
msm
##idin
##132
integrals
relieve
pretreated
normalization
reliably
fasc
381
substanti
weighting
cps
depression
torch
intensified
9a
tear
decoup
consume
##133
goodness
coherently
hbn
nanohybrid
bioactive
thorium
photoresponse
gol
panc
ors
508
pubdate
##98000
##10938
delocalized
wleds
rz
##6f
##ingly
alcu
nitin
bios
castep
returned
spheroidization
b13
fang
##cin
hebm
341
1025
##anging
grazing
cst
##chim
am1
850°c
tfts
css
f30
##9b
cocrmo
xz
deoxidation
peaking
containers
##monium
##263
assessments
assemblies
s0010938
bioactivity
chrono
coff
15mo
stabilised
##pd3
epitaxially
w1
wat
john
cbd
lagr
immobile
co50
##×10−5
scheelite
1h
yun
1064
##504
reductive
purities
czochralski
sant
##8f
855
lorenz
hms
pione
sio5
pras
359
342
lamps
httpaccept
virtue
hagb
nodular
s0079642599000092
cspbbr3
italy
mgal
transistors
volum
603
drives
laminate
vsce
524
576
nist
##np
hyp
keywords
##cb6
3e
733
slide
dehydrogenated
pertinent
##etal
##agec
microem
lamno3
lsgm
s007964259800
fick
lou
lmn
wl
x3
mgf2
experimentation
mulli
retarding
##ba2
excitonic
inspired
mantle
ecl
##7f
cu7
371
harmon
enlar
frenkel
7al
aa6082
lk
αs
chu
##iaz
386
governs
cuboid
##aved
ca5
028
384
couplings
s00223115130
kcal
analytic
favoring
lubricants
micel
referenced
transducers
pend
tris
mg7
5wt
##ipped
ballistic
license
unmelted
1g
ruther
incompatibility
anderson
418
##arbur
nonp
s350
textural
chi660
7xxx
mm×
100°
edxs
##cripts
merge
xl30
oleic
tj
##olab
interlam
fe6
ssr
categorized
mik
##bone
alf3
elf
339
slowest
nicl2
blends
traced
cmcm
##iva
fundament
eliminates
6mo
oac
##6356
##xy
cmas
##ska
luminous
departure
dd6
wppm
##aghan
1030
estimations
metallicity
dilatometry
purple
sigmo
##7c
##port
casi
kong
thmn
1130
moo
porcel
nanotechnology
defini
pillars
##winned
roc
##wall
calibrate
lco
##atz
##umi
canting
fe70
intell
avoids
bou
t8
kohn
optoelectronics
lewis
##function
##acryl
glue
s0020
label
benzo
differentiate
##1c
##bod
nanome
jpn
bot
empirically
fun
##lqj
##rend
twenty
mn1−x
ndfeb
##zn2
octahedrons
750°c
piezoelectricity
rejuven
##olvus
##ena
exfoliated
admixture
μw
##2c
dibor
##feld
ni15
##tizr
flattened
galvanostat
iterations
gtd
chongqing
2mg
795
murn
##129
hexane
a€²
9b
β2
##1210
modules
05°
483
pscs
##iness
yb0
s00223115100
tohoku
1m
##using
344
connections
070
bace
spike
interacts
mnox
biased
spik
chun
10th
##206
pbf
sloping
##ropylene
5v
635
643
bv
##4c
##4000
##kinson
incoming
gr17
stripe
projec
commensurate
ashby
2w
nih
sc3
##du
##jing
##ulti
aber
dimensionality
filtering
##hui
electromigration
peculiarities
##via
unsaturated
50°
phosphide
a´
asp
encapsulation
kester
v−1
##iles
anten
characterise
residuals
exclusive
hamp
##sius
plug
##nb5
isotyp
motivation
064
424
dna
steeper
inoculation
527
q2
##6x
stripes
zeeman
−δs
kol
##wa
##9669
flood
pseudocapacitance
porcelain
665
dfg
gem
capturing
601
encomp
electrodeposits
ejected
stops
3mg
atr
hull
yao
ti10
remote
embritt
##amin
##2014
autoc
encompass
ning
##lop
niaˆ
generic
colloid
2ta
##4e
nitro
rutherford
7c
833
jing
##6c
ge5
366
493
lapo4
stroke
opinion
648
inertia
struc
407
flaw
collecting
obstruc
buschow
gil
##aed
phill
cu8
phosphides
elasto
rkky
2ca
563
binders
##ulfide
monolayers
wedm
l6
mish
##list
nano3
microcrystals
asap
##pers
##fe11
hexagon
youth
destabilization
thomas
→3
alh4
shortcom
shortcomings
##ele
throughput
2917
microporous
rejection
griffith
din
##rot
surpass
200°c
buffered
−c
##wood
recommend
σt
##kar
##idaz
22al
machines
anisotropies
functionalization
cztse
murnaghan
##198
severity
s09669
correlating
macroscopically
gsas
##740
reed
cr6
##isenberg
∼80
##9d
##o0
pbi2
synergy
lagoud
s036031999
hashimoto
5−x
985
nco
probabil
texturing
tentatively
lagoudas
583
##dv
stent
ml−1
##iaxially
fermion
ju
##aun
##elli
nanocubes
centro
flaky
##eu2
d5
chea
##aching
##ns4
basicity
convinc
pyrrolidone
cyclohex
−50
##ayama
25nb
##242
3f
978
2300
432
continuation
representations
489
creativ
−100
pyroph
fuzzy
ran
##n0
##sio2
spectroscope
326
##97x
nonlinearity
polypropylene
australian
fcp
##mers
##178
fel
##iller
12cr
hpo4
accommodating
reciproc
overload
bases
meeting
caz
serving
##ylamine
icosahedron
##scrip
##a³
##590
esa
cai
doing
thermodynamical
permitted
##ilin
subscripts
a7
dco
λ1
rotor
487
favours
650°c
dσ
##7000
##tise
zn17
perpendicularly
invisible
##feo2
month
35°
triv
manifold
evacuation
4−
##nis
##ido
adversely
1523
ni12
heisenberg
clau
##etting
azim
licenses
vigorously
celgard
oblique
went
##tall
laz
##7825
fundamentally
080
cid
ske
zag
equiaxial
eventual
bundles
kesterite
##cx
##789
##aid
##oshi
chan
fw
##gro
##sized
ast
thermometer
ohm
##eee
scenarios
apex
boric
pertaining
rocks
xue
##bsi
zrni
incorporates
reversion
tsai
rab
##mps
grati
agbr
mills
functionality
##utation
accelerator
links
unrecrystall
##13006356
s0927025613006356
2cu
3sn
qy
##rn
##lov
indexes
pestle
kω
pay
tft
##ibe
slowing
universit
undesired
mitigate
modifiers
carbothermal
602
498
partitioned
478
s11
##sw
seg
roughening
pelle
ethylenediamine
prevails
clamped
u0
ying
##8d
codes
neat
instances
##oche
cocrcufeni
camoo4
muon
073
5m
945
##lan
sc0
unalloyed
electrolytically
featureless
renders
penetrates
##fluoric
latest
carboxylic
p20
rdf
hydrofluoric
cryom
cucrzr
##518
18cr
ba1
attacked
rsm
extracting
adopts
cyclability
probabilistic
060
copt
prince
##tors
##leigh
##139
##ssal
feconic
restrictions
ascer
578
724
##wc
##eds
##icip
performs
thermograms
segmentation
dictated
845
##ce3
##ammonium
1220
tinb
adsorbents
stick
bazro3
dar
##asic
##iser
rehydrogen
effusion
nob
ionicity
linkage
##olite
cnc
plasmonic
6d
dcp
perfor
392
friendliness
9w
##agons
pfm
municip
ascertained
al70
##omagnetic
superscrip
80a
interpenetr
##ecommons
loses
al85
decor
director
ba4
871
screened
exchanger
cohen
discernible
685
xal
13nb
bind
406
physis
thresholds
2e−
cnpq
cuni
positioning
##nbo4
fried
impregnated
1y
##o€
heads
##enda
approximant
operates
qw
sham
engineered
utilised
cultured
volatility
2r
1111
tern
−25
calcinated
direc
mixer
responsivity
dimers
gelatin
antiferromagnetism
scaffolds
searching
tho2
eli
nex
mack
pem
##access
##uri
00z
cd1−x
i7
o24
expose
fragile
preclu
organics
penta
unidentified
retrie
chaboche
##749
##aic
regulated
##ails
coli
990
engineers
unsatis
encouraging
5n
cary
##p1
##jc
paired
visually
exceptionally
kernel
ratcheting
refiners
cheaper
sab
##mot
varian
##201
pressureless
urchin
multiphonon
fascinating
prasad
creativecommons
8cr
silar
zng
##ro4
##elines
burr
mahg−1
cuso4
scaffold
1al
##pm
inequ
##ige
cuts
amin
##grain
sbn
segregating
hrc
kgf
laminar
618
gix
tys
ugc
wx
al50
reside
union
##ube
bread
piez
cu12
amide
30cr
plough
482
stearic
##811
##ematically
subset
1110
nil
∼16
##9f
##thi
ni45
ecm
interdiffu
cryo
assembling
patches
nanoflowers
pseudobinary
##ƒ½
rayleigh
brook
interlamellar
nin
oxygens
ba5
##0005
eigenstrain
##8e
reduct
s300
451
accumulative
intermixing
477
in4
1230
assure
squareness
isolate
8nb
w5
∼500
##tri
cu15
lsda
demanding
##4680
54056
mesoscopic
a¼
iro2
##ques
valves
i¼z
thermocalc
conflicts
1ti
##a¾
plzt
mg65
microscopes
hco3
superstructures
microemulsion
ssc
gettered
antiferro
b14
##2f
subsp
activating
tetragonality
r6
sector
∼70
##343
##tude
trie
si21
100−x
drain
##toxic
colossal
saddle
jasco
reset
rother
inspected
uran
##oethylene
1530
blending
476
8j
##ti0
##rex
##ilicity
##otal
##ayashi
newton
boos
damaging
library
misfits
431
##tio
##utyl
cupr
##ni0
##287
534
468
documents
schedule
##nav
valences
cmr
cathod
microparticles
tomb
vim
##sme
##agen
nox
superheat
subun
srct
homogenizing
polarons
technologically
3dap
421
wied
##cow
##elka
##nas
##ran
arith
##coo
attaining
pyridine
lafe11
predeter
barrett
morr
sri
##±2
cocl2
ant
manson
blun
##lm
furnaces
prospective
rss
##uni
cmk
stopping
mfis
encounter
waveguide
bipyram
2t
426
735
baf2
supplying
clamping
convol
hume
nich
ome
##info
stimulate
xmcd
photomulti
fe76
brand
703
ledges
receiving
institutions
glaze
efficacy
vr
##r0
##oll
crushing
leap
s0009
##aud
027
hydrothermally
viol
pastes
phillips
jade
##ender
10a
verifies
overcoming
restricting
shrinking
pockets
##3m
incor
346
dominantly
deutsche
ltp
channeling
hiping
karls
##ensitivity
mn25
##allium
judged
gupta
##5b
##how
spacer
adhere
##text
##issue
ultima
instrumentation
fh
translational
##mable
fepo4
flip
##706
subsystems
zeng
##diff
##yang
coils
lange
p7
##icti
ti1−x
##uminescent
accomplish
##æ¸©
rear
amorphisation
##602
655
ticl4
cfp
diminishing
lscf
cids
kister
kkr
mdrx
##inorm
compd
##ffle
##2010
spectrofluor
452
openaccess
chronoamper
skew
7h2
##eal
tiv
mae
##updated
laf3
##144
articleinfo
indexeddate
dateupdated
sweeping
yearnav
datesearch
##datest
##pagec
al14
sher
contenttype
alllist
291210
pubyr
pubdatest
openarch
articletitle
articletitlenorm
dm−3
doctype
docsub
pgfirst
itemweight
itemtransactionid
itemstage
piinorm
srctitle
srctitlenorm
ewtransactionid
dateloadedtxt
webpdfpagec
sortorder
hubeid
ssids
pubdatetxt
srctype
pubdatestart
openarchive
docsubtype
webpdfpagecount
nem
tracking
contacted
##ductive
moscow
##uding
exothermal
tile
impacted
decolor
peaked
pdo
envis
solartron
bacu
##9e
##n1
redlich
##apsules
##holes
prospect
ping
pap
1090
tinisi
degrading
lspr
semicircular
sorb
columb
probing
032
##692
oscillatory
offering
crmnfeconi
discrimin
rothery
038
alan
##oh−
663
y6
##rl
speck
13zr
crossmark
gauss
sommer
volumelist
utility
##fi
##itor
volfirst
volissue
eshel
edl
separations
s104458039700
issnnorm
yin
##¼z
##utely
likel
1963
##az¥
ghosh
3sp
##x200
##tsch
liv
542
conjugated
dumbbells
oliver
trivial
civ
##versity
delam
598
kos
##graphs
homogenised
marker
returns
glu
hon
ω2
crys
amster
1320
labram
monocrystalline
liner
lds
##ula
aug
1873
cucl
upwards
biof
boc
δμ
##dp
spur
unpa
hydrodynamic
handle
i¼œa
793
hindr
mgy
∼400
##cu4
fixing
642
nord
ore
mnfe2
submer
##intercal
uniaxially
filtr
supernat
metam
tanh
lubricated
iqc
##ihood
thmn12
compan
704
manipulation
rins
391
s002231150400
grip
fep
topmost
dissociate
##boo
succeeded
##jan
ard
upd
504
inherited
hazardous
eshelby
≤1
##bil
##tian
crb
subrou
454
##794
pseudoelasticity
po3
functionally
##122
s000926
meets
dihydrate
1125
ca4
##fe17
ticn
photomultiplier
fee
705
receive
al1−x
intercepts
mgfe2
ideas
stoichiometries
niobate
gent
wan
co6
sund
##bei
pyrite
467
tibw
incorrect
6xxx
muk
si30
##locking
la4
##ethanol
##643
converts
436
vessels
ez
mri
shots
##chen
1270
retards
conveniently
##compounds
##fly
##bec
spsed
blister
dilatometric
unpaired
ece
hss
##a´
##13000
s0045
369
buoy
##ocompatibility
##ruhe
likelihood
574
arous
##istically
15zr
eqe
uncomp
miniature
amsterdam
a¨
##g2
mett
trim
ti45
mg24
ingredients
hypersensitive
933
ω−1
evans
copolymer
078
stents
nanone
treatable
holmium
isotopic
nasa
polysulfide
anharmonicity
##pic
##ycl
multiscale
ccas
ecaped
522
ek
jim
tta
isob
sheng
cancer
nicu
warren
nbo3
chlorination
repetitive
coffin
083
474
goni
xiang
##fp
neumann
##194
lamellas
symmetrically
intellig
##orf
##athan
leached
monodisperse
gratitude
mec
grand
diversity
##1050
collab
heterogeneously
813
ipa
xafs
doctor
049
cantor
sion
aggr
provision
cris
decision
##inschaft
ctb
thixoforming
brackets
do22
dub
nond
wse2
zint
autolab
i¬
##pre
shir
##384
bamboo
genetic
1mn
pads
wiley
##i5
microf
liy
carbonized
limg
mathematically
freckle
predetermined
lnt
sectors
stacks
100th
##ateral
zhi
merged
playing
lumo
karlsruhe
4fe
eth
##grou
alm
##akr
deser
neckl
pglast
##tosecond
1240
##155
hmf
imperative
pier
±10
coo3
2550
##ringer
cleaner
dispersant
lil
uh
##wlrq
##asaki
1045
monel
femtosecond
dz125
ras
##ge3
reporting
pdx
localisation
csd
gnss
swept
inconsist
085
##x10
##posed
spain
10zr
surger
##engine
sf6
ellipse
s00457825
θd
##lag
meam
fe60
hebei
outp
dron
topcoat
##ringe
photoexc
exterior
∼150
segmented
expresses
mulliken
tv
##a¼
thz
inapp
grits
canon
ti25
##yner
waam
zirconate
francis
##kj
reus
tio5
microwire
ejection
strengthens
priori
rinsing
fss
y10
##uents
##geme
1253
##6065
##cu7
photodi
cuinse2
o14
sag
viii
##ipolar
metallographically
slmed
##118
pd5
pseudog
preparations
princeton
iht
##vw
relo
options
butanol
803
impedes
447
closing
mgzno
crist
ni19
indicators
foundry
zr1−x
femo
olivine
3zn
kun
z2
##pul
cu40
inflam
##149
isotypic
tapping
6462
7cr
##plo
acidity
##print
s092702561100
ptru
dec−1
planned
cah2
emitters
##erjee
adver
geo4
gtaw
damp
qin
##5f
##ulph
spac
##ella
recalc
##pd2
khan
lw
##lox
clath
radiant
cns
resolid
a¤
mari
##hq
spar
fe8
mining
ga4
4500
isople
sweden
##oe
isf
ab3
442
rockwell
kor
lind
pcn
deintercal
mg97
unb
##akesh
photoelectrode
sieve
royce
defoc
##146
dictra
fischer
electromotive
fsm
appm
cuo4
smelting
kubelka
##cg
##ocorrosion
knuds
petro
rubbing
munk
074
nto
##2017
##156
stabilisation
544
s026130691200
knudsen
bw
zfo
##535
##aired
n6
##jk
579
lll
##07
ag8
lasting
oscillo
prospects
zintl
striation
uncover
pentagonal
1cu
vog
##nand
##iƒ
cong
outcomes
nontoxic
univ
753
fittings
dhc
adatoms
aggrav
526
8f
1175
997
metab
ablated
dsr
perturbations
olig
mettler
##abric
potency
demonstration
strategic
kerf
outputs
b11
ccs
cij
pere
##2e
nias
outline
cloud
pbnm
osteobl
bms
csm
kβ
1750
indebted
asperities
3mo
499
rat
sent
ti60
misal
5d1
please
henan
tnt
œaz¥
polyol
chloro
##gued
##kn
##zi
10nb
pr6
rawtext
america
##œ€
boost
tooling
analogue
##atics
dealloyed
10b
adm
crystallogr
##fto
merging
nanomaterial
iit
##eq
alti
##inet
resistor
6063
crossed
minimizes
439
saliva
wien2k
necklace
##fined
ams
##orton
##ixing
discer
554
fesial
6p
c8
tand
##through
acs
##733
gd1
##227
swcnts
##ahashi
nonstoichiometric
pcd
##akami
legal
##mg2
seeding
demagnetizing
nanoneed
mro
stan
asme
fe84
concentric
combin
minimise
dtg
bearings
fv
hse
que
reorder
##184
##co0
cdl
vibronic
ordinate
judging
snoek
goniometer
collaboration
cured
v6
##ray
methodologies
1480
topograph
sliced
##a€€a€€
tall
##obs
gdo
weakness
hpc
mori
scarcely
g0
##gren
##oner
50th
carries
##164
484
592
##arbon
convoluted
hindrance
469
745
m−
anton
##co4
magnetostructural
ripp
disintegration
depolarization
##oft
co30
shann
afe
stressing
##134
faulted
sided
##qd
##ilos
##æ˜
micropl
zr70
deriving
extrusions
skutterudites
##gemeinschaft
##cut
handled
459
552
462
alkyl
##rendale
omega
pseudogap
austeni
isotropy
distributing
habs
jnuc
1962
inspect
guan
moulds
vitre
hou
nisi
##6h2
terfenol
resonator
586
allotropic
695
ssm
dm2
null
tpp
##se4
541
accumulates
641
srr99
gixrd
jnucmat
hous
−11
electrostr
routin
xrpd
qm
##uel
locating
collim
markers
627
hut
tree
vca
##fig
##arro
##perm
impressive
##going
feedback
wilson
clausius
ave
sich
arte
utilizes
colorless
buehler
4mo
fle
hes
i−
wb
##jima
##inding
melamine
inductance
clearer
warrendale
codoping
franz
kmc
p21
##anneal
mehl
peeled
lei
##agnet
necessit
lu3
fgm
##zhen
698
gon
ted
t651
##eramic
##401
joyner
441
pecvd
delocalization
683
fell
##tips
distill
fev
alli
zry
axisymmetric
ending
kob
globules
14cr
proposal
borates
visualize
trough
struct
recycl
nbsi2
oxyhydrox
decomposing
reproduces
christ
los
sid
cuo2
##208
##ubic
##142
456
advancement
##atizr
impul
##243
2700
834
tangles
##14715
zwick
ptal2
s0022311518314715
gr18
##duction
puls
multiplets
builds
patent
a12
mse
nhe
ots
##tio2
##ongru
convolution
mineralization
definitions
supernatant
965
cordi
si31
sncl2
ce1
sharpness
fesib
flatt
hui
950°c
10−14
corrug
u1
coy
15al
1420
theorem
aerogels
withdrawn
aure
kon
##centr
alto
##trically
ni11
##ional
regional
removes
vuv
##kins
spt
living
036
4f5
hbox
chromatography
5h
8i
##produc
aly
format
##amethyl
ma95
507
discussing
0025
nanopores
##246
disorders
amplified
034
##7225
coagulation
589
##urity
ultrap
derives
restored
tures
cristob
yap
zy
edu
eigenvalues
unrecrystallized
##ala
##2015
fatigued
sandpa
prevention
bainitic
disturbance
bifurcation
0≤x
mou
10c
tio6
##teness
threefold
##302
csas
031
1mg
4y
g3
ith
pma
cov
##vet
si43
##fe5
england
rb2
vhn
excite
yba2
randomness
faint
##9c
##uity
scw
bulky
rhombic
choi
cottrell
pla
switches
manufacturers
cotton
descending
inflamm
hell
##tix
generators
bull
##forth
##osilic
sulphuric
motors
ellipsometry
subroutine
4nb
ieee
enfor
afa
electropul
nbe
##138
##185
aerosol
bilayers
5w
bati
n8
nanbo3
legen
nb10
spectrums
nimnga
10−13
epsrc
ty
##μb
##icc
twsme
respond
medicine
≈2
##aine
feh6
microstructurally
na1
burger
biomaterial
fe30
bai
854
##posi
molybd
heteroatom
nafion
polytechn
0ag
691
gx
lake
##sin
phd
##232
graphically
halenda
assemble
glovebox
manifestation
lacoo3
watan
incongru
##505
##tto
##ewski
4f6
exceptions
hydrocarbons
ck
##610
si28
evo
testif
radiations
nitrogenation
46al
sixth
##bio
differentiated
kocks
allen
defense
s1359645498003
peripheral
civil
2li
lump
##ishi
pb3
##tao4
viscoelastic
##b12
propanol
fls
s0026065
springback
picric
##atoire
738lc
vhcf
1sn
ags
znal
snox
619
w4
zc
0022
foot
expansions
vanished
546
647
626
pmg
yn
##uo
deforms
853
nanoflu
forschungsgemeinschaft
pj
t91
−12
##adec
finest
absolutely
reciprocating
oscilloscope
bak
tpr
##7c3
##inates
perce
lasted
496
sustaining
##related
isomorphous
tk
xn
standardized
phenyl
horizontally
contaminant
5140
vo3
parity
##2026
##ssbauer
lime
helios
##factory
subspectr
cristobalite
664
aval
##omo
truly
smx
linkages
justify
09258388960
naked
zir
λ2
prx
emw
ltcc
pcm
5160
ledge
spreads
arrested
arithmetic
hq
wel
cr10
##pps
446
distinguishing
imperfect
rgb
banerjee
æz
##a¦
mno6
butter
lightly
##7475
hertz
micropore
selenides
polygon
thixoformed
decolorization
743
æ™
pdms
blis
soldered
kinks
716
##bac
##zel
impress
466
persists
deuterides
bsa
fsped
isocon
##006
matsu
##703
472
langevin
564
spp
crc
si27
refines
μmol
bq
mtt
##bard
##9a
leaf
snag
cm247
##2016
muller
o16
ym
##anian
nov
nm−1
grouped
enhancements
supplemented
cfps
471
discretization
arbitrarily
wavenumbers
reductant
nlo
δp
##6000
##vo3
basket
##7017
##osium
hypotheses
exerts
discerned
7m
rj
transit
initiative
s002231151630
568
disconn
consolid
unusually
arrive
##alloyscompounds
frontier
erd
##gi
zn11
##2022
belt
nanocapsules
progressed
landsc
pipes
dilatation
uniquely
835
##actic
chao
ti49
##606
##758
sensitivities
gsfe
monovariant
638
meng
δz
##bo4
##tg
ni80
nanjing
specify
polytetr
s0008
gbps
csir
surgery
##16300
realizing
impeding
497
dmem
pyramids
nozzles
photovoltaics
kurz
621
stein
stepped
506
##oki
exploit
##iko
sfes
lagb
interconnects
479
dk
pus
whenever
dosi
compensating
ukr
##lockwise
gul
topics
##333
germanides
inequality
d5000
∼35
##a©
co25
10ni
insulated
tetrae
interdendrite
carboxylate
aureus
##rocess
tren
##114
501
hypothesized
krat
ignoring
steric
c11b
ternaries
a8
dss
##malloy
imposing
superiority
abrasives
tails
captures
pancake
mdf
°с
##oda
ti20
1961
stef
alongside
discontinuously
vega
obeyed
069
3ag
want
##aµ
##nets
##131
backbone
esca
##tructuring
miniaturization
subdiv
oxynitride
kramers
2ni
##m3
##oning
##503
ifw
guest
932
nitinol
breadth
crow
c16
cawo4
##alski
asb
##onstit
photore
attrition
laboratoire
recognize
collaborative
pil
co11
##yste
nmc
locking
caal2
designation
idealized
1aˆ
689
##fh
##erc
plen
##pt3
aa6
fixation
regularity
masumoto
##50960
dirac
inaccur
federal
richardson
interpenetrating
763
u4
ise
excellence
indian
escap
monovalent
alam
##2018
displac
clearance
##irect
proportionally
degenerated
baker
forum
cuti
underway
mapped
edin
nucleant
affir
avg
ended
amplification
##6223
s0029549
βo
##idner
perimeter
cu17
amel
alterations
657
291778
aven
d6
vill
##n6
andre
##arc
hydrogel
mnas
1380
##zn3
##5000189
robustness
s002250960
s0022509605000189
hj
s12
sought
yeh
##yle
wavefunction
hc1
ploughing
watanabe
o18
fe85
pairing
unmilled
microrods
lakesh
σs
##™i¼
si29
electros
rectif
investigates
euro
essence
logged
mrad
isopropyl
hubbard
chapter
buoyancy
3v
jilin
sys
±3
seitz
##strom
consumes
##234
588
infras
shoulders
vulner
mature
elaborate
1190
##1195
inocul
deaerated
lakeshore
3mn
bcs
⋅6h2
ingaas
##oline
2157
reordering
gsch
##ulator
dew
##226
smoothing
bern
5e
pugh
dispar
502
nanoplat
47al
6061al
assignments
smeared
intentionally
599
eƒ½
decide
unin
##igner
tb4
494
embry
mxene
participating
northwestern
cedex
conserved
##735
042
##nsb
##alcogen
s1359645499
softened
bifunctional
pechini
cbed
thallium
inval
trc
s0749
##245
4si
783
##μm
mg8
1340
antipr
refraction
industrially
neurons
deintercalation
##local
75°
##issa
diamonds
involvement
australia
712
dust
∼90
usc
0005
multiplying
problematic
coincided
s026130691300
rejuvenation
nizn
−σ
##b19
corroding
abovementioned
divor
tolerant
unsuitable
##amatsu
ag1
eta
##uber
absorptions
owns
6700f
recombine
−q
##233
integrate
mgoe
agglomerations
##silane
shenzhen
bh3
rv
z0
##iev
2221
055
547
syringe
okamoto
canonical
461
779
kic
−k
##gian
##ocy
##assb
supplies
locked
##inski
sucrose
652
s0079642505000
lenticular
unsatisfactory
clu
influential
phenolic
587
594
gj
ready
scienced
##404
ignited
murakami
gst
sj
##ook
observes
fluctuating
089
##yama
magnetized
##tet
overgrowth
##141
sb5
ni33
instruc
ingress
vein
ioz
shielded
sparse
cordierite
3x
bfs
gently
y7
∼45
##zc
ta3
ulvac
ranking
exemplified
uranyl
lacl
##719
cosi
##10x
esd
##afts
##beam
##alyzer
sulphides
cro4
tapes
staff
fe11
impose
unsm
zn1−
resisting
##rometric
2016yfb0
residence
polynomials
##sd
plume
mnn
ceram
029
250xi
federation
avalan
6cr
a£
##tip
in1
pharr
##222
##ectories
nanoribb
finishes
frustrated
4s2
keller
ppt
##inz
compil
meyer
##oct
mny
##coni
##951
annihilated
##ulfate
lifsh
magnetoresis
spanish
inoculated
3ca
compton
gr19
arti
waller
coalesced
trajectories
fronts
s00086223
gschne
798
mss
tts
##tec
##rig
10v
esrf
takahashi
##174
##ise2
##2429
2600
entities
chambers
ellipsoid
unconstrained
shuttle
swedish
##picuous
divorced
##idel
si33
h2o
sheath
hydrophilicity
steeply
inequivalent
lmp
##load
verifying
##2013
disturbed
storing
breakthrough
choices
renewed
harmonics
##alumin
1075
znaˆ
saˆ
492
5102
bun
h20
tart
##mf
##lity
be2
dealt
##agawa
suitably
mgtio3
zn6
relaxing
ba1−x
##tonate
rearrangements
tunnels
alexander
envisaged
legend
5co
##bson
trif
predominance
irregularities
bandgaps
pulveris
overpotentials
kou
sst
##bial
fe13
cu60
emto
convergent
cladded
macropores
epilayers
ust
sadps
talent
electrospun
intimately
thousands
wiedemann
edinburgh
##imo
##vem
ti15
generations
1330
gaining
preserving
927
bore
556
##istingu
3zr
dow
##ees
##bas
impair
remed
physico
##265
commercialization
harbin
blanks
witness
firmly
aberration
displacive
cgr
ue
##ormal
##192
662
ipce
s026343
i5
##ieties
ge1−x
edlc
##cu5
crofer
circumstance
xj
##dge
shaft
##nett
thermionic
##708
transmutation
zhen
##741
sciencedirect
572
s147
zl
##tn
volmer
photochemical
monochromated
multiferroics
##005x
osteoblast
s007964259800005x
wing
##orbic
10si
remin
crosslink
##632
fluorinated
mpc
corroborates
5g
dre
xing
##lean
mnco3
mncr2
zrv2
##ception
doubling
s09258388193
shallower
s0925838896027
freckles
rehydrogenation
bap
wake
whit
ornl
interf
lia
unstrained
##−2x
putting
antimicro
immobilization
pursued
nanoplatel
s147153
491
##acies
##009
obsc
20ni
zr30
pdp
niso4
fgh96
sievert
corroborate
blunting
infrastructure
osm
pcf
##3b
neb
decarbur
zn5
996
shearable
photoelectrons
benign
puni3
emitter
walker
bure
dac
fd3
##a¬
zni
zr60
##119
sr4
coexists
birch
5at
ken
##−6
peter
outg
tetrahedrally
434
##iton
tok
disilic
hept
pollock
cuboids
##×1
12k
monomers
seemingly
functionals
wuhan
electrophore
electropulsing
δd
stoner
fe82
microgr
zrsio4
##1456
metastability
##words
ascending
debate
al86
ours
spikes
0304
tsc
20si
food
indented
350°c
journalalloyscompounds
safely
dwelling
plunge
pulverisette
0d
748
a˜
deng
hung
∼14
ineff
chung
dia
wetted
belonged
##process
ascorbic
865
##house
##anal
zrcr2
multiv
059
558
cpfe
aptes
5ta
bpr
jung
xfe
amcs
accident
mnfe
##upd
##planar
qualities
##837
##×10−2
mismatches
##5219
quantifying
ecsa
628
τ3
##w2
lightest
##auf
##orescence
march
s092583882030
spanning
s00207225
woh
yl
in1−x
minus
ca9
481
viewing
czt
cards
##aº¦
knee
antimicrobial
kk
##igan
am2
regulation
methoxy
##annel
##cu0
65°
schmidt
bottle
lifshitz
5t
885
arose
##o7
##ago
impure
absc
magnon
##ophase
overestimation
cyclically
aside
dan
##008
##essen
zrh2
sensitively
tmd
magneton
narrowed
preservation
aeronautics
##tisement
edlcs
ultrapure
aware
e4
1210
corros
protects
scherer
sns3
jmat
advertisement
q1
##tran
##ils
dise
1093
30ni
multiplier
s0022369
654
platforms
scavenger
##istinguish
dal
mop
ru4
shortly
nimo
jsps
mpeas
##vv
zr9
circulation
l9
partitions
enz
polyst
excessively
##239
805
sicw
migrated
artifacts
cyste
wro
intric
fe81
argue
##704
understandable
567
nvp
sedimentation
0al
591
kat
wors
suite
##151
powered
048
japanese
dimpled
rheas
temporary
2×2
bones
factory
standpoint
henceforth
functionalities
retre
dissipative
669
xd
##402
ductil
statistic
infinitely
superpartial
a¢
toled
sols
signifying
msr
tnz
collapsed
underestimation
vitreous
778
##my
##ywt
##sim
reheated
variational
pb1
adjo
s0022311515
osse
encouragement
fish
nta
##academ
chal
sept
plastics
nd1
photoactivity
9536
##apsh
petrole
painted
##nf
crude
financed
somehow
608
##caled
marc
##ashima
unpub
s0167663605001195
cyclohexane
aas
i´
norton
1225
##ovsky
##ecker
xerogel
interchange
sclc
s0022024
955
ebook
coloured
nce
npd
##methyl
nbo6
25al
subgrou
609
allowable
##767
mc2
aceton
nabarro
816
rint
impacting
993
nanosize
guidelines
laminates
microelectronics
##academic
losing
pounds
rein
conditioning
matrixes
25°c
certified
55°
offsets
pyrex
splittings
tangled
tnm
rrr
snsb
consorti
faradic
fingertips
polypyr
sketch
pst
##corpor
##oor
hao
mg90
ticu
##33280
8zn
bts
ling
sav
##d19
usnot
##301
nature©
150518
##33186
##berger
20004680
3000710
30002026
30007475
30007017
30002429
30005219
attributing
304ss
insearch
springerlinksearch
editionacademic
editioncorpor
3991456
##searchlog
3902333280
3902333186
##switch
3springer
impressum
2157755
advertisementsearchlog
petroleum
fingertipsswitch
15051854
2000468029
3000710535
3000202650
3000747524
3000701761
3000242950
3000521924
editioncorporate
3991456305
911
≥0
##ointegr
##ppler
mn50
607
##763
pyridin
bni
trying
##entrum
ptx
contrasting
memories
chromite
publish
shrinks
refrigerator
contiguity
561
lec
pon
slee
##ret
cartes
snc
sls
##409
584
##rylic
fsmas
fat
lfa
ucn
δτ
alanate
##thoxy
##abad
ni48
electroneg
guided
specialized
annihilate
chelate
##enzene
##pyrrolidone
dε
struts
adds
motif
snapsh
tbx
universite
044
wm−1
##t03
coded
grips
ti35
superoxide
1360
intersp
##df4
##ucker
##inery
impinging
misoriented
ascribe
jmatpro
cartesian
rram
zf
axially
mapbi3
gentle
796
gab
##amen
fef3
niy
cd1
usefulness
bubbling
gschneidner
electronegative
ati
pcl
##nr
##vich
cancel
agin
tetrab
lz7c3
exchangers
polystyrene
4o
gdy
gta
##fx
##tp
##var
al65
hauc
unres
employs
##mn0
unrel
highlighting
a¹
kear
shake
philos
fe77
formally
cuz
notion
diffusionless
606
massalski
packages
539
degeneration
ultrasoft
##ville
uncont
kobayashi
molybdates
##620
aniline
##bss
concentrates
propylene
entang
harris
##istinguishable
r5
t−
tntz
##bes
rex
##abc
##akov
##illi
gov
##br2
abnormally
nanolab
3ni
xcu
##jet
oxyfluor
baso4
rwp
##hemite
843
938
dmax
gds
hυ
hsc
##pu
semime
inference
permission
municipal
072
sight
coo2
feal2
mgsi2
##crmo
pt4
##172
twining
hfb2
658
commercialized
536
soda
rheoc
esi
gear
z1
exotherm
obl
solutioning
versions
052
##oglu
judge
feconicr
combinatorial
unpublished
##mcs
##trains
nb20
flg
##451
550°c
304l
interruption
springerlinksearcharticle
827
alum
stably
resp
##007
043
inertness
imperfection
metallurgica
nig
oce
tons
trimethyl
##508
sncl4
##307
bnbt
e€
kom
mst
patin
∼18
##aturing
alon
sih4
conclusive
##fe10
faced
tandem
agcu
nah2
856
cytocompatibility
french
parentheses
2nn
dul
gk
##critical
inability
compartment
gr20
liver
sharma
blanket
goals
doppler
1980s
photoexcited
549
jt
##cyc
##uary
##acion
maghemite
##903
3100
lpg
warr
sparks
m6c
blisters
invia
##usch
undulation
##orphyr
maximized
pbx
5553
0003
fapesp
naph
piled
wigner
εp
appeal
##tina
ta15
##8583
rationalize
cocrfenimn
toledo
2j
##970
anhui
mica
1958
newtonian
opposing
bimetal
enzym
6th
llc
wak
##amel
au2
rotates
s002231151500
##rolled
austria
##texture
absorptivity
4ni
ucl
cr1−x
nie
approved
cobal
537
additively
diph
invariably
projectile
distillation
flattening
##centration
##acity
undet
affil
582
osaka
15418
electrophoretic
629
n−1
αβ
751
s13590
screws
mfm
immobilized
landscape
9si
nodal
qr
##cht
agar
30mn
numbered
flowers
tmcs
discretized
tribocorrosion
r3c
a13
wsi2
thcr2
mg50
redsh
cualo2
nanophosphors
biosens
submerged
ais
##eties
##iction
##sities
mems
##weed
nothing
mm−1
disclosed
au3
##747
cusp
colloids
sakai
acetonitrile
aime
bold
hci
jose
mrd
stp
fe25
extrud
coercivities
looked
kirch
pandat
t351
rew
preformed
actions
fe9
mother
capital
brick
903
interconnection
ntas
jackson
otsuka
forster
inch
100°c
755
dissociative
recognition
feni3
##identate
s135964629900
nizr
δn
lii
opa
cea
partners
ohio
orbits
ctes
stereo
intelligent
##oly
ath
##739
er0
##406
npg
s0925838819
tribof
lini1
entrap
kratos
sit
wo2
##yd
acqu
##iped
snse2
##atalytic
##chinger
sb4
independence
##ivas
tnts
rmc
tzp
unambiguous
inappropri
765
him
ross
overaging
##298
vapors
threaded
reusability
##s3
dihydride
corn
20th
emd
##2011
kinema
s0168583
6n
dae
##e€
##538
##æœ
disulfide
elevation
##ynthesis
security
4fn
establishes
micelles
cysteine
se8
##152
necks
rtfm
597
coexisted
steril
david
pioneering
aroused
uch
nio4
tiaˆ
imi
scallop
distant
aqua
noticing
sirion
polypyrrole
6ni
##top
compacting
te1
##aba
leaded
##253
primer
cfa
evaporating
springs
1−c
##balanced
prompt
r4
subsection
softness
pasted
jiangxi
skeletal
aliqu
##aj
##i4
##odi
znwo4
pairwise
562
economically
disruption
c10
mess
w18
×10
crsi2
°c−1
ga5
waiting
correc
chrome
logic
incompres
kre
zco
##bar
interlocking
10h
underlayer
broke
tl0
lmc
##ointegration
811
915
hps
mnte
γm
slides
1580
dopamine
millimeter
ceo
thermostat
thermoplastic
053
holders
##udw
##442
666
s092583880500
bipo4
universitat
baus
g−
nap
##→γ
##ali
atomically
zrcu
downstream
dyx
01°
##997
##834
4f1
peritectoid
unexpectedly
nacional
nanolayer
nobler
−13
##vern
##cob
nanosecond
parametr
ambiguous
##urf
suppl
completeness
smcs
selector
ze41
al6061
cu47
esem
ba8
686
pcbn
##chloride
bringing
vulnerable
kmax
zim
∂x
∼17
##col
##tio4
toc
##anda
mg41
polisher
1451
carbonitride
##166
tubing
ssrt
shenyang
davis
subunits
nuv
qian
raster
γs
##yron
deactivation
exo
fega
unal
1375
##604
604
convention
581
psb
hierarchically
microanalyzer
s0304
qiu
rocksalt
interdiffusivities
abscissa
##whel
3dg
s09258388183
bundle
mesoscale
##cia
##ael
##atel
##agan
teo6
relaxes
interpolated
aa6063
hydrophobicity
569
5130
gibb
circled
delays
swiss
histor
sonochemical
reloading
lacl3
dld
gang
mnm
behaved
450°c
571
n1s
survive
s030488531
perceived
076
gur
oval
pale
wk
##hd
asz
orific
##chmid
iran
seek
##753
checking
antiferromagnet
nanoplatelets
913
ict
resins
chou
pauw
00l
##244
abraded
rodrig
attenuated
yamamoto
s03048853183
bcn
##gx
featuring
12b
overwhel
esp
##coal
##ylon
##221
converging
781
s026130691100
danger
##ique
impart
634
mismat
instantaneously
##metals
##attach
sigmoidal
893
bga
gec
##mad
##zero
##imension
mmt
##ymore
##647
limnpo4
##ecommun
nazn
yh2
heil
##acher
cep
2715
046
unfilled
stimulating
tapered
impulse
8h
golds
lzo
fepd
irons
ester
dox
controvers
754
broadens
lithiated
trioxide
adhering
pyridinic
anymore
##apy
perf
si46
##orsch
locks
save
forgings
reconstructions
equivalence
controversy
a¾
jj
lα
nets
si35
moire
709
superdislocation
miyazaki
fip
xylene
y8
gra
parasi
emittance
nb7
polarised
tial2
566
##eva
s002231150500
expectations
pgstat
regener
935
eur
ils
##ault
##116
##nikov
sr1−x
rh0
##993
047
4f2
##96x
##hasic
deficiencies
mimic
tif3
tmax
##ban
##bo6
##nial
##aser
##ilateral
byproduc
outper
##pt2
tax
8090
cosn
##fa0
telecommun
##1201
replica
##cover
##cope
##fur
##icate
reac
au0
starter
issu
1970s
##afluoroethylene
1v
stat
fe72
brush
##tty
suspected
circulating
551
##zn13
burner
jumping
roundness
underestimate
elevating
##motaw
k5
mend
##omi
##scopic
##801
schul
##mn4
sdw
nakamura
antenna
superscript
dym
##wl
nept
##507
1212
blind
slot
buildup
nasicon
spurious
stefan
χ2
##iodic
##in3
al87
trs
##chi
admit
coverages
fcgr
sulphidation
lute
smp
tess
##td
reforming
##apw
indistinguishable
20nb
##159
srin
##176
707
ebw
tecnolog
prototyp
fullerene
##quinone
upsetting
jer
lbe
##a¨
##kii
##arity
cuaˆ
laterally
psz
bnn
microcracking
hopkinson
haucl4
lasing
xv
##amm
znin2
##te3
##nier
propri
##408
collaps
tmos
parallelep
cvt
tentative
equivalently
supersonic
##fin
##tie
conditioned
852
analogues
nnn
cm−4
rendered
nanophase
bauschinger
1l
kov
rapp
≈3
##iable
asami
permalloy
implication
2219
thermogram
profiler
feconi
differentiating
osteoblasts
1n
knbo3
##mgo
parameterization
##909
chromic
interpreting
fractograph
traveling
grafted
##chmidt
holo
mud
##ups
##ora
##issible
cot
teo3
matano
##ensated
15ni
flatter
microwaves
ss316
experiencing
s0079642511000
addressing
s0079642511000752
p10
−r
##e−
##gas
bex
surgical
supplier
carbonitrides
##fe7
topographic
competi
boxes
bypassing
gd6
559
037
equipments
jmak
tartaric
dρ
chand
seo3
mg1−x
sin2
thermochemistry
deviating
jointly
sulfurized
782
trapez
nodule
membered
parasitic
cƒ
##i€
shore
10ti
discarded
557
intrac
exploiting
upturn
ncm811
sesf
yamaguchi
stereographic
microvoid
brazilian
ardell
amelior
lpd
##uez
regulating
mmni3
1370
srim
visibly
2800
mg2ni
##undant
644
tribometer
ασ
feather
##501
microstrains
mn20
##165
transporting
feso4
colleag
retreating
ucnps
ols
fe65
boeh
lathe
downwards
hexagons
amplifiers
dilation
##sn2
htl
disproportionated
912
##aman
##vies
disclo
##229
smoothed
pnrs
shanxi
##liest
monodispersed
##keywords
4mn
vv
##ei
##o1
##oa
mov
##807
##293
summarizing
##points
s0079642599000067
##glass
auriv
neptun
bang
intergrowth
##opt
##1616
earliest
ct200
cgs
constitutions
morris
a9
æœ
anc
crnb
stiffer
pbi3
##295
breath
soften
quadrupolar
patients
speckle
i¸
##scc
co40
##urred
wastes
##vik
li6
##acked
biref
scalable
##volume
zoom
birefring
2na
3nb
bark
c©
pcc
qcs
##ktron
niw
niwo4
identifies
35nb
summing
##ca0
##939
hamamatsu
ordination
submicro
symposium
tetrabutyl
opaque
x4
##uthal
trich
nitic
mnp
##2500
tetrahedrons
sicf
1050°c
##x1997x
864
vps
ato
grind
10m
amor
26°
##loride
contributor
sichuan
063
jons
quin
sums
nanosem
##359
cvm
hgse
ocv
pickup
reflowed
nkn
aurivill
spatter
unn
mnco
1959
054
vibratory
953
si34
##calc
tungstates
varistor
sgte
cofeb
zeolites
turbulent
gle
lal
mush
##icit
precr
##ventional
road
boriding
transmitting
pulsing
##98x
nanograin
occasional
##acrylate
azimuthal
s00220248
aec
jie
qf
ferroelastic
chemistries
superparam
½i
cr15
microbalance
si36
∼250
zp
##nx
##ota
intu
mgsi
undist
##238
reflective
textile
borided
hillert
repairing
pseudocapacitors
scratching
oxyhydroxide
nanoribbons
8d
gay
june
tag
yf3
##fcc
##enite
##arz
te5
nbcr2
glut
guaranteed
895
vzn
electrol
diffracting
##2012
##257
labels
coordinating
pwr
photomicro
daily
altogether
aurivillius
678
δj
intui
brin
schne
divide
sesqui
overestimate
cacu3
##hop
##onation
znmn2
clape
##231
##407
microtwins
supersolvus
5li
##estruc
##rik
proposes
issfirst
a€¢
durable
disposal
issuelist
dus
##mo2
##−5
##±a
##orth
alge
aster
chiral
ni55
sm5
##902
macroscale
acceptance
bicrystal
elaboration
recalculated
2i
6nb
##tail
##ecess
##idc
ti7
tbp
apf
helping
vicker
germanate
ntp
antimon
voxel
adjoining
mation
roots
argonne
descriptors
interpretations
micromechanics
##annealed
porphyr
send
##inak
oxidising
amper
fibro
##factor
##4800
637
672
radially
sdt
dehydrated
conserving
740h
conforms
madr
tortuous
5×10
burs
##titious
##lou
1275
29nb
intersected
magnetostatic
multiplicity
chenhua
cuse
resembling
guangxi
viscosities
al16
##154
bulge
s0079642503
clapeyron
##158
topas
orderings
pmt
646
communications
8li
jon
##a10
##icy
##iger
##187
reasoning
suscept
##ivedi
bzy
entrapment
676
983
aγ
##een
##onds
##254
##405
representatives
688
benefited
##fecr
pickling
pxd
micropillar
μi
σ2
ag5
nanocatal
metco
realised
recovers
067
wrong
accompanies
intermolecular
pka
al18
##onded
desicc
superheated
thermoluminescence
##aney
bnkt
nisn
cyclotron
s002230930500
##body
misalign
mist
sip
##iflow
compet
fey
update
ndc
cocr2
extensions
lamg2
tif6
696
##mite
##mpo
chie
eda
flushing
##742
##ochem
anticorrosion
ocean
838
943
ames
book
redd
logical
##236
magnesia
normalizing
hereinafter
doss
tpa
zg
##ectiveness
preex
guess
ansys
hardenability
student
amalgam
intricate
iu
σp
pls
##ende
##arian
outwards
##valence
apr
∼1000
malay
sleeve
bud
hff
tum
##zf
##ille
sho
##emade
micrometric
##scopy
nonlocal
programmable
swnts
attacks
nanotwins
naci
pyrolytic
eheas
compilation
727
kth
mating
xt
parad
si73
1290
flinak
708
engineer
omc
incompatible
discusses
905
backf
##elson
hrds
##952
sludge
s0022311509008
macroporous
##absorption
imparted
orifice
631
719
cco
∼600
##ser
##umg
##qual
ni14
surm
##tites
evolutionary
flange
csro
041
feeder
unsuc
cecl3
−16
##hw
scx
pb1−x
3200
csn
039
rearranged
s01675
interfere
intuitively
−h
ni35
scf
carcin
mirr
covalence
##alcogenides
6m
cbs
−m
##iard
##æ™
conformation
beo
##ocaloric
flowed
na4
phosphorescence
countries
##282
fecl2
788
acetylace
preceded
vulcan
micropillars
diboride
vogel
p12
##cies
reads
##ston
11b
##meier
defence
patterning
caution
pbf2
turkey
stoe
##mn1
44°
636
4200
permeable
fundamentals
nserc
translated
antisymmetric
thousand
enlarges
retrieved
cages
tli
strut
asser
##13a
widened
volta
starch
ppbs
##2936
resonators
δhmix
rra
nis2
contaminations
chris
c40
σa
##tiles
##isch
reform
teeth
##tivzr
##chio
1033
##oco
orientational
fourfold
tbcu7
##hev
mishra
shannon
ukraine
luk
pare
rong
argen
subb
attracts
##aa0
eus
##mel
o49
srf2
savings
##thermia
nondestruc
zirlo
→2
stamping
##ge6
##fei
ptcl6
si32
znsns4
dhcp
circumvent
penal
cazro3
subdivided
l4
in792
##iso
capes
emc
##237
mapb
cusn
krish
nikon
tween
μn
−196
##ibh4
##ensus
##ressing
unim
regulate
dependant
##ansen
humidified
kyoto
physisorption
##imensional
789
gum
##ipp
##oro
rees
electrochromic
ru0
exploitation
hyperthermia
ncet
883
cgo
yok
##m−2
##rin
##raction
thre
##ucl
##imide
shares
appli
naval
denomin
##axed
abundances
oleylamine
δq
ti30
perspec
dichro
polytetrafluoroethylene
tetraethyl
unsuccess
848
964
##oti
unipolar
larson
aluminates
dmd
garnets
sandpaper
spf
3010
##199
##nb3
deionised
i€½
721
sse
##imi
reprecipitation
##709
sbh
deformable
639
##itrified
recognised
preliminarily
elastoplastic
tis2
diagnostic
nexafs
hur
tbr
vag
##hang
mo7
##full
##177
horn
gh40
977
##eder
coplanar
accid
moham
##6459
supercomp
toroidal
borohydrides
anchoring
##aled
isis
##adhy
596
tiling
questionable
signatures
4g
ebr
hph
##c12
##dent
##ictive
abe
μm3
milli
transformer
a1203
predominately
homemade
617b
mortem
k−
##3a
##ase2
bo6
soak
consensus
802
denuded
5600
10−15
restore
s1044580399000
colleagues
3k
##standing
liao
afric
print
##648
absorbent
varistors
inorg
σi
##uliflow
##osis
ag4
grease
##1001
lutetium
tessell
bso
yr
−200
##essel
##ensely
##772
infra
yellowish
ae42
carburized
trifluor
717
bos
sms
won
##ysics
##formamide
pta
deliber
##berts
turbo
dissipate
lager
replacements
gese2
guarantees
delineated
perspectives
pod
vent
yalo3
##cac
##bp
preset
netic
emr
modulations
988
dmm
attainment
reddish
079
1ni
cto
fus
qp
xsi
isostatically
moist
##ferrites
brine
sr5
approximants
tbfe2
counterface
wright
ranked
bdtt
znga2
bds
##a15
##relation
##olayer
##804
empyre
interpol
masked
##bb8
implicitly
antiferroelectric
dah
fk
vel
≈10
enamel
frit
sinx
##ferr
overcomes
clark
appearances
fluctuates
732
pumps
inefficient
griffiths
ct2001a
niticu
5182
yue
##materials
cuy
li7
11a
orthop
subjecting
882
triggering
polyph
vanadates
##lementing
s00092614
1nn
5170
##olium
ti13
1121
mma
cfrp
buried
kbf4
mqws
algebr
δb
η2
##test
stz
##ims
preston
adven
1957
pd40
##642
##292
depicting
nicrbsi
isobaric
dynam
##ce0
undrx
overg
existent
davies
manifolds
tetrahydrate
replicas
6242
petrochemical
ineffective
090
7kh
##760
##ulum
pep
orderly
##ropically
cauliflow
ga19
collectors
placement
cosθ
waveforms
shedding
1960s
convincing
avenue
792
##dale
in7
as4
si1−
mncl2
pr5
carbo
dope
goeth
##308
651
fingerprint
brinell
868
b18
d50
kroll
τ0
##lett
se1
##phosph
30nb
##168
srl
summed
swift
##639
fese
htm
demixing
simplifying
sacrificing
##nandez
s002202489900
unsuccessful
9000
hus
j2
lem
pam
##lq
##jun
##opal
fe90
imposes
sn13
##353
s030488530
adventitious
s0022024899002936
4100
uph
##oli
##persed
##acetic
##ellular
12a
soil
excimer
ssd
accumulating
ultrafast
automobiles
dmss
shiny
brookite
recyclability
empyrean
−n
alcl
confer
##abr
oral
composing
bounding
oversh
bi5
optimizations
##768
939
nicocralyta
revolutions
hydrolyzed
inaccurate
venk
nylon
##izu
heaters
aluminosilicate
subm
metro
s0079642599000043
diverging
underestimates
assistant
7th
##hood
##°с
##ursion
styl
##851
nanoindenter
alsi7
unavail
s09669795
##eramics
lacks
yp
acute
moieties
pr4
generalization
owning
##ivable
ctod
egg
foaming
skp
##hrm
##ologic
liaoning
lund
mnge
ode
hygro
morphotropic
analyte
preferences
entropic
polyhedrons
ges2
uncompensated
c9
crown
ting
u6
##izawa
##bs2
ni24
sc1
##705
##452
swcnt
fecu
##they
794
drills
xiong
pyrolyzed
s10445803970013
hutch
osseointegration
july
nern
tisi
δθ
##structural
20°c
cl3
ga25
nanostructuring
##228
msa
687
pinholes
m6ssbauer
sot
tir
δu
∑3
alas
haas
hydrous
sn10
5052
cefe2
ybo3
##296
##598
s002231151830
pseudocubic
exerc
femoo6
661
799
dps
ems
rde
vk
vander
##enton
procured
relational
1310
##126
##137
piii
gauges
conflicting
pelletized
ecd
fade
lizn
##gently
##gging
10s
loo
##241
chemie
rah
hgs
universidad
photoelectrodes
conformity
0zn
4sn
feo6
##angian
aller
assists
##385
s014
swaged
cpfem
osl
cubical
unfavour
gemini
dcpd
rectifying
5o
ico
uhp
##650
precip
factorial
##267
##898
focussed
multipolar
globally
lani2
diminution
elastocaloric
trunk
compressing
turbulence
outgass
##thoxysilane
srinivas
nernst
768
bmp
rue
##rad
##abst
##acetyl
mn23
purge
picked
immiscibility
exchanges
##domain
buffering
hypophosph
appealing
stylus
##inarily
co35
reyn
pref
ti8
##dy3
##imeters
##358
cocrni
9r
a357
alfe
door
nital
widen
sbt
instrumented
renormal
benefiting
tenth
craln
photodiode
898
bkt
ala
##titude
sae
38°
fluorination
##a¸º
learn
cpp
ramping
ui
wound
xzr
trilayer
simt
mnsn
br2
##artensitic
##805
cosb2
balancing
aimd
europe
birefringence
lpe
rer
thing
cani5
lived
prepe
cl6
radians
##274
##8003
720li
granulated
dimethylformamide
polytypes
monovac
reflexes
lagrangian
disparity
0cr
##→β
##olis
##odium
cha
chair
ence
epi
apical
ticp
##61730
hint
appreciation
uf
##ahydrate
##oui
##ussa
##ffy
mgco2
precon
mnsb
locus
sphericity
mvs
##284
coloration
photonics
s0167663605001201
ddd
##yne
##vak
intercrystalline
mgco3
records
minif
confusion
agreeing
fores
tico
bottlen
alkoxide
yoshida
fd3m
9c
916
pms
s175
ωo
tively
artif
##agnets
empa
056
##654
multipole
installation
cca
clockwise
zsm
mathrm
fet
##def
1003
synthe
freund
##afa
shortens
956
##transport
metrics
cathodically
861
dct
d33
xcr
xni
−ln
##lia
##hoff
spir
##tialnorm
thereof
precession
##cco
zn7
infinity
##adeh
authlast
authfull
758
apc
5150
mfp
##urnamen
vpsc
##stsurnamen
settled
authfirstsurnamen
authfirstinitialnorm
golden
s1751616
authfirstsurnamenorm
g7
nte
##owell
combust
##386
058
##793
s1369
668
debinding
burnishing
2πf
wolf
aºc
alanates
unrelaxed
malaysia
##dz
##was
unaccept
##255
invoked
952
delaf
##cao
bscf
pyrophosphate
fibrobl
rcc
##pan
##hand
##elle
dex
##umn
matpr
sn11
sao
##linations
s002231151930
ntc
permitting
survival
protocols
auric
znsno3
kul
##uing
deploy
repaired
au5
pd4
nanoalloys
urgently
hgte
tsuk
fermions
scratched
redshift
##coverable
##188
sensible
converges
koch
embryo
##14010
repeatable
encouraged
0c
liz
lcs
in6
score
corrode
hipped
cr2032
deflected
mirrors
##inities
alsb
concen
decrep
mn30
slits
smf
##197
cdb
##278
cfd
ncnts
hummers
attainable
s036459
hartree
unaltered
674
866
##aro
##step
10co
##1081
##phen
##1882
gelation
886
neighbourhood
passivate
##vens
##ische
ti48
zr40
eman
liquef
pd20
nd6
051
##mno
circumference
destabilize
ratchetting
ou
##αβ
##igram
crust
seis
microtexture
10w
surplus
inten
##2352
250°c
ssp
nial3
catalytically
684
exhausted
decarburization
orthopaed
hypophosphite
714
bake
kro
o€
och
−60
##idge
hep
##achrome
mai
##ta2
linesh
##epit
##mg0
russ
gesn
capillaries
##olidus
refrigerants
spectrofluorometer
h−
##rates
elap
1623
ta1
achievements
##ittel
pitts
hilliard
decoupling
##rocessing
goldschmidt
1w
bmn
ghs
−14
prox
##amy
lex
snbi
flowability
##906
tmr
ausn
##7299
rpv
s0168583x
cable
xrr
δmix
residing
unoxidized
maud
##1010
anneals
1470
primabst
##901
##0002
062
##444
s0079642513000
pyrochlores
friedel
gdoes
s0079642513000789
061
726
pine
##acial
##urization
##imidaz
formic
##1020
28°
701
##248
transformers
collagen
meshed
ticr2
swaging
formerly
kimura
embryos
1f
749
gv
saint
##nest
shaker
fe18
si40
etl
nonzero
hardnesses
fesn2
uncor
covalently
arrived
versatility
fullerenes
b16
wishes
##otenti
etoh
parameterized
consistence
ru3
##proper
exhaustion
prompted
s0010938x0
subgroup
artifact
1p
buch
izo
mam
massi
ooo
##2θ
##enberg
##ostability
hf20
942
nicral
viscoplasticity
aa7050
humb
δχ
##pin
lefm
1931
##249
longitudinally
items
micromet
##activated
6454
stringers
s4800
αgb
√3
##gt
toff
electrooxidation
##depend
bi12
flan
##855
farther
##na2
overestimates
deceleration
##œ€ð
797
931
##assem
##701
jog
rux
si37
43°
diamagnetism
smoothness
salient
unreal
permang
carburizing
physique
dodecyl
butterfly
nondestructive
goethite
basing
rmn
sly
˜a
##v0
al90
trivedi
ni75
##encia
calculates
discip
13cr
##802
contracts
collectively
necked
##27136
coo−
##ba0
f2g
fe17−x
s0304885318327136
undrxed
##uil
animal
ni51
materia
filiform
32°
##skii
vane
##cnf
pyrro
relieving
nwas
nanoneedles
acetylacetonate
728
##fw
##ested
co19
resides
grav
mg10
bovine
assisting
comparably
##162
tmw
sidewall
s0026
##991
tribology
pyrrole
preserves
microconstit
731
777
##tted
##kova
##otti
solver
superposed
iral
##251
##387
##imetric
apd
manuf
hcpeb
anomalously
##transformed
##cellular
intensif
6s2
tensions
##xd
cuau
amc
electronically
1440
remember
##336
fsma
##f3f
triggers
s1359646298000
malvern
##a±˜a
miniflex
722
bing
mount
##onitrile
stzs
as0
matthey
##ocarb
scars
noferr
##upol
##161
##ecking
787
photoluminescent
nonstoichiometry
2co
rust
gr21
##iri
##iration
efflu
##gh2
mechano
15nb
contrarily
degradable
quantachrome
extremes
recycle
assigning
murray
k417
manipulated
cytotoxic
cauliflower
093
jiao
p11
qws
yco
−α
##430
##lp
##hara
alh
mn6
mnz
serb
fluka
6500
##832
rtp
travers
analogously
s01676636
unconventional
pendulum
delafoss
879
##zone
##±5
##derabad
maf
ir2
##608
purging
centering
practices
1150°c
titanates
aœ¨
s147153170
1wt
2×10
5ce
bib
szo
tack
##uper
15t03
cleaved
responsive
901
fills
659
triply
5405
catalyze
inconsistency
september
3wt
5100
bidentate
ves
δλ
##ressure
zr25
o30
sm1
pto
##0001
predominates
hiro
inappropriate
permanganate
812
reorgan
##osa
interactive
scl
completing
axi
954
hooke
dmls
nanoplate
diesel
s1359646299000
nanomet
963
##oulos
shao
implementing
ag6
hyderabad
1953
1640
contracted
858
092
classify
sustainability
k418
##mingham
embrittling
lom
##sha
##alx
ni13
amd
solidi
##mo0
propulsion
fivefold
sandbl
deteriorating
sacchar
##00001882
nanosphere
sketched
s0045782500001882
s13590286
099
3o
##5c
##bro
##aton
##istal
alo4
ni47
reddy
##ubert
hf3
098
kindly
bolt
hammer
smartlab
nanobelt
glued
679
yh3
##a¥
##bcc
##oin
##stad
webs
##strong
twisted
cah
authkeywords
degussa
begun
filtrate
subspectra
gcs
ymn2
##hin
chev
improper
ndmg
flushed
modulate
converter
5500
brevity
##532
##board
jacob
nazn13
2−x
ain
buc
dum
−18
##tige
al88
sinc
##ixed
radiography
18si
##3334
##636
##8876
chronoamperometry
989
ccf
felt
i£
plow
−s
stal
shpb
usp
zr8
inconel718
adsorbing
demanded
feedstocks
stringent
grafting
lagrange
cuprates
s02634368
929
fbs
mission
rac
−z
##yal
ship
ket
thinnest
##anned
chromel
hrxrd
remarked
burned
ultrasonics
unequal
tenupol
lmnco
nichol
2xxx
6y
fenton
rive
##vector
altin
##ocu
δtx
##chez
##econds
hampered
unresolved
cuznal
reynolds
james
mate
stut
##sey
intercellular
imbalance
register
emits
posed
optimise
marking
068
s00223115110
multich
resembl
factsage
anchor
students
ambiguity
singularity
inflammatory
microgravity
oxyfluoride
874
−35
##x15
equatorial
boer
mmn
roberts
40al
##191
7055
##904
disappearing
thermomechan
delivering
campbell
##9000102
s016757299
s0167572999000102
nons
##uer
##uling
shaked
##ag2
tempers
dece
##phy
702
occupations
octahedrally
aa2
connects
fluoro
puzz
s0925838818
##oborate
bhattach
protonated
relying
s00796425030003
818
cain
gass
fe1−
cug
cu11
maximizing
joel
801
##micro
evaporator
nanofabric
s09258388130
synt
cuprous
desorbing
hutchinson
auricchio
677
eag
lys
lfo
##3f
##uf
cock
ni21
latp
graphic
hints
kaolin
bpa
co8
##owa
amm
processability
antibio
participated
kinking
cesium
##tallur
2oh−
bcf
##usn
pretty
niox
roasting
lai
lah3
subcell
jogs
hfx
##adhyay
eub
nds
ql
βsn
##h5
##sib
pharm
sebm
amr
nbb2
detonation
28cr
solubil
pvc
korean
foregoing
3bi
5×
bwo
rav
ε2
##r3
bears
##odel
chakr
##iest
live
##ga5
halves
##339
hr800
s092583880400
smco7
agencies
ozawa
nanophosphor
uncovered
cm247lc
697
9d
dbs
lor
mms
mecking
ooh
##ovic
##ql
crsi
interacted
##opo4
managed
agreements
2273
85°
4700
accompany
##aa03
1990s
piv
glancing
poses
16d
anyway
machinery
084
lu0
kopp
##3003
tomographic
destroys
paget
aa5754
nonpolar
autocatalytic
s002954931
unfavourable
dls
tcs
alzn
##terior
##eme
##stoff
notes
metallograph
##veness
##onald
##litic
formulate
programming
saito
s002231151730
arrowed
lanio3
anodically
tracked
mcdowell
s00260657
witnessed
superparamagnetism
3t
a60
g6
ned
thul
##ela
exacer
shah
scm
unpol
sn7
30zr
##309
nanowall
niti2
fm3m
##zyme
liyf4
ihtc
sach
sill
##ald
mg60
speculation
##259
blast
##4074
litao3
backing
##498
invariants
isoelectronic
##hvv
forsterite
argentina
exacerb
6ti
729
jul
##afe
acrylic
conclusively
erf
hexamethyl
##355
zro3
complications
tini3
biphasic
mnooh
woven
##i¼œe
intuitive
misalignment
std
##vie
agsb
sny
##llll
s0925838820
sdbs
annual
fssw
2σ
male
pushing
zu
ðœ
##k2
ity
transversely
##ni8
nitroph
##99002
csr
##oxygen
tiles
heterostructured
multichannel
5s2
h10
mps
##oral
asbs
##adel
##akis
si55
##aria
##tek
##plate
borders
##peak
numa
recombined
pgm
deserves
hpht
prepeak
c²
kai
ner
taz
##zd
grams
##charge
oxycarb
pd1
technically
150°c
garcia
##ozov
avalanche
thulium
4x
bill
c−
##920
1410
ferri
##augh
786
##20000
premise
polyvinylpyrrolidone
clathrate
pose
##fellow
##ativity
interl
##ipore
simon
bioc
1460
##252
millimeters
wearing
##262
fluctuate
alnico
lino3
nicofe
complemented
chronop
profilometry
dcs
e¦
p14
zah
##xm
##wo6
coz
peters
##gh3
belg
shortcoming
sharpening
chamfer
ht1
berg
tolerances
miscible
srzro3
nanohybrids
s0022311519308876
692
lta
tad
ypo4
σ9
σac
##aldehyde
##ecs
al30
effected
minister
mnc
##80a
cdm
zrnial
sublayers
5re
948
hither
pom
##eli
prefactor
##scn
redundant
1430
##iiii
804
turnb
employment
nicely
##caloric
694
microanalys
mgni9
lun
ub
threading
##agi
canc
perchlor
agins2
stevens
butler
bi1−x
cepd
##167
contrasted
intersects
857
packet
gamry
rheo
aucu3
pagetaylor
872
estr
spline
##arya
cu1−x
novem
nm2
ca1−x
##601
992
lengthening
##383
##whg
integrations
671
everywhere
##obor
mackay
##aign
##js
##igen
##506
oxidizes
nb40
biodegradation
polytype
##457
organometallic
##207x
orthopaedic
7zr
shank
cma
##ungen
multiplic
mca
alcohols
roman
michael
ingredient
necessitates
wavefunctions
heilong
fy
##tech
teg
prealloyed
##apore
exposition
nonmetal
flipped
087
coinciding
veeco
cro2
curvatures
aeroengine
keros
unnecess
7853
gong
mco
nfe
naka
pnd
##casting
##atical
##914
##ece
##elen
magnetizing
diffrac
23cr
ht2
restoring
sac105
boilers
bader
ensembles
hitherto
869
cq
eft
pid
−d
##ben
##ischer
neph
electrochim
arisen
50al
nai
##266
##ught
shelxl
persistence
s13596454990000
tessellation
dap
lights
##ery
20al
12°
##751
##641
ho0
##itron
caloric
##normal
manifesting
desiccator
2gd
hoh
pips
##tw
##i³
##aran
##omeric
##ibed
##wei
gd4
3300
supplemental
cs3
wohlf
seismic
899
worm
δɛ
−v
##wan
agvo3
desorbs
singapore
fug
tmt
##gaard
##653
fecocr
multimeter
s09258388050
chloroform
patina
neptunium
uphill
pittsburgh
8w
casing
fiz
##ua
composi
te6
weave
comn
do19
gdvo4
baffle
066
097
liberated
##10004
consecutively
watson
699
897
kok
##ectable
fe74
si50
##157
3003
##808
s0022311516300
burstein
42°
682
optimally
parallelepiped
vls
##5e
##je
##olding
ti33
varieties
15fe
cools
freest
994
s0022311511000
clarifying
armstrong
gonz
elapsed
shakedown
4mm
878
ation
tending
##esian
greenhouse
adoption
mn37
educational
s0079642505000538
chronopotenti
november
fq
wb2
zview
κl
##cb0
##don
##rick
stayed
regia
slr
##456
s1a
##holm
stimulation
sbsn
august
artefacts
rodriguez
freundlich
n000
v10
intergrain
admitted
movable
tesla
bellow
mg2si
##ca4
alternation
routinely
isoconcentration
antiprism
trapezoidal
resemblance
kato
wca
zin
zou
##uco
##se3
depart
underaged
therapy
##phthal
srt
##quiv
alpo4
s0079642507000
shuff
interfering
alleviated
anvils
substantiated
turnbull
8h2
889
b22
e21
hia
°f
##robe
##akura
mg85
fillet
14ywt
##ramanian
galvanized
directionality
voce
expressing
commented
admittance
heilongjiang
8th
dcl
q235
rib
##xuh
inwards
##orol
##itter
crconi
znc
hfa
multiply
o7−δ
nitihf
nonequivalent
waveguides
kauf
##c15
##t0
researcher
ptni
zno1
ta4
schro
dimensionally
981
sgs
translates
ozone
cryomilling
744
8fe
β→α
∼800
##hong
ons
millipore
edn
extents
multistep
titr
cdw
071
934
immun
stemming
recher
perforation
shirley
acquiring
unimodal
769
hig
wes
in9
1085
##angles
1133
lately
hardware
laid
ga21
ptpd
##ta0
908
##782
a2g
cryogen
cuzr2
tizrhf
bace0
stanford
movpe
3−x
767
859
p91
xo
##sic
##zawa
cocu
forge
##ulus
##eret
##state
sias
notwith
1956
slg
oxygenated
ga27
##fe9
vision
##4015
pbc
equality
separators
##7951
posses
predictable
cryorol
invariable
rocket
961
a10
bmo
lyn
q3
σc
##eel
##onuclear
coke
co80
cra
##nio
##1845
nd4
shortage
stabilising
##aev
emphasizes
llto
destabilized
stannate
settling
7d
d7
ipp
##utin
algin
enig
sevent
ti12
electroposi
underlined
services
dispersibility
stabilise
082
retrog
dragging
contradicts
cunibe
consolidate
5−
5hf
8e
tional
deficit
ca10
monometallic
tba
terminations
triplicate
b1g
justifies
semimetal
dynamometer
luster
˜æ¸©
##cƒ
##ells
##omet
signify
silva
ultrasonicated
##8224
incompletely
migrates
conjecture
stagnant
dangerous
kain
−17
##gn
##utr
##erg
antif
obtainable
znti3
##crystal
iru
d023
bridged
infinites
quadrant
scintillator
egi10
conceivable
corrugated
pyrrolic
freestanding
notwithstanding
1×10
hbss
##lar
##ober
##eras
##aca
##omechanical
chin
##quan
untransformed
mml
##iet
zrmn2
nitrite
36°
luders
##984
devised
selenized
entrant
kerosene
1x
fco
npt
yas
ε1
##¹a
##˜i¼
mexic
gr22
2050
nmm
unste
granule
hanks
lsco
surely
blown
recommendations
delafossite
stuttg
wohlfarth
2wt
pq
tkd
##60003
reten
##ardt
zntio3
drif
paulo
radiatively
substituent
##893
−150
reproducing
lifted
humps
bracket
alamos
fres
kist
lbs
mong
mcl
##iti
##requ
al80
cose2
interven
evs
specular
13a
neware
lanis
cosh
autoclaves
eyes
##ictides
belgium
bart
b17
mct
rmn2
tav
σb
##aving
stuck
##ommon
trav
##ria
ti44
eu1
zincbl
mry
784
definitive
photosensitivity
regenerated
hwang
sincere
stuttgart
cess
p9
##md
##æz
##enn
pho
1098
cuag
notations
##vestig
liii
expert
mnzn
##659
receiver
quasist
fulfil
extrapolate
am60b
reminis
correcting
breathing
077
∼75
transistor
br−
gd10
barb
galvanostatically
sgn
s00796425060003
subdivision
delaminated
s0079642506000399
e5
flem
ginz
kaz
φ2
##bf4
##g3
oxidizer
mann
1710
tic0
errone
681
famous
cmsx4
centrifuge
nahco3
crisis
6cu
791
c22
kλ
spc
fe86
niin
##achen
zn20
detwinned
cd3
##996
##ophene
unreason
addresses
2sr
s0010938x
##properties
uht
##aco
nbtiv
nonmetallic
thermometry
##bran
polydis
##495
natao3
swnt
##oking
##694
tc11
clarification
unequiv
rollers
monohydrate
palm
guideline
protruding
klein
0cu
raney
##pent
##atsu
reused
interdepend
nia
imr
znmg
zr45
cooler
##306
mclean
wireless
##684
2010f
sparking
delaying
##omorphic
scavengers
sendai
2o2
jay
kgy
tcl
uh3
##kal
me3
subscale
1127
assays
##locks
1520
ferh
##736
remn
srru
erx
analyzes
##905
spherically
4300
096
884
declining
tellurides
disintegrated
kasper
isopleth
9e
bid
d88
sft
umo
##b14
##asch
deoxid
advice
unbalanced
tablets
##2019
somewhere
nitio3
electronegativities
unsteady
1o
y1−x
γi
co15
##olia
tet
elli
oxys
weather
unannealed
foundations
24nb
pt1
engng
theoretic
##graduate
magnetometry
##447
cped
rmt
cukα1
s026130691000
xyz
snapshots
bottleneck
776
fas
kad
stit
##550
anth
##odon
spans
datum
ga20
monaz
987
##acyt
thanked
anodised
cyanide
directing
threat
4i
7fe
hsm
nct
ral
t73
æ˜
⋅2
##homogen
speci
904
##mn3
delicate
##693
mwnts
radar
oscillators
dissociates
dichroism
bzn
d10
eec
i00
iup
sap
wool
yzn
æ€
##a12
tert
##809
backstress
##unger
merlin
kno3
qdsscs
scientist
##loxane
s014211
bta
cag
dts
dpd
xpert
→0
∂c
##e™
##bae
##uya
##adiene
1630
##288
##da0
prominently
instantly
royal
nimno6
enlarging
discriminate
koster
god
z4
∼700
##amg
##ensen
mgh
moke
outmost
au1
##tiful
basno3
irradiating
##652
diffuseness
luag
fluctuated
##temperature
s1359645499000
electrocatalysis
float
blunt
stannides
isopropoxide
blowing
bumps
##9800010x
inaccuracy
s002072259800010x
joseph
7mo
aª
folds
ores
−ε
##refl
teo4
##00x
pd30
##1522
compressible
##269
msd
devoid
obeying
ceni5
april
penalty
zincblende
979
ubm
σ1
##cast
##510
coox
##ir2
sees
brinson
##439
rearranging
wrinkled
ishida
kronig
terrace
δα
##vectors
am3
hass
propell
igscc
##884
unstressed
##iliar
birmingham
##ochemistry
ludw
waters
##orge
tol
cored
bean
granted
##utting
##ichiometric
##294
3800
0625
coal2
bronzes
settle
kawashima
jacobs
remnants
924
pim
retsch
##periodic
ni16
petit
becker
14m
explor
057
summarises
bmgcs
complicate
lactic
werk
rheocast
unnecessary
772
fate
kapp
ward
##hre
##zb
crfeni
founded
erbo
protectiveness
spheroids
eck
vaporized
c276
declared
##12004074
hirsch
petals
disregarded
s0029549312004074
s096697951
s0749603
ginzburg
8ni
##tation
ature
abb
##30100
overlaid
spectrometers
valued
##recipitate
pwa14
s0022311510000
0e
sitting
ρ0
##rag
alt
coge
anim
chilled
amu
replicate
##phases
##1123
photothermal
la6
srmoo4
approximating
easiest
kno
tribolayer
excludes
p3ht
anticipate
hygroscopic
yfe2
si45
redep
aluminization
ge20
18h
##181
activates
practic
validates
hipims
1300°c
norway
morin
##olecules
disrupted
nutr
764
lx
vga
##dec
##er3
##orad
death
ni31
1135
##cr3
sinica
zr15
1325
nonius
srb
iiia
##852
interfaced
##798
##268
lognormal
maraging
emphasizing
−325
forthcoming
hubei
scarcity
s135964541830
resolidification
s0925838805008224
6e
aip
b33
xzn
##mb
##onom
loys
zral
microscopically
##60110
1103
tc17
decaying
meshing
bpy
chelates
squeezed
baceo3
##uj
##anti
##acces
hai
coral
undulations
timetal
upstream
16c
##good
tanks
dm−2
htc
universality
8sn
σm
##alth
##osited
strati
mno4
conspicuous
806
succession
##486
tcd
uncoup
flatness
nanotubular
nras
nagdf4
microtwinning
ssss
5xxx
828
ips
##m1
##al12
bee
spa
enzyme
intensely
imidaz
excel
holz
##rometallur
immense
micromorph
##araj
fesio4
navo3
snagcu
boehmite
slyozov
reminiscent
ere
kag
ric
sle
ε0
ℏω
##sip
ana
mg9
zrsi2
edwards
##14b
nanoarr
adsorbates
##686
continual
deuterated
electropositive
1gd
forcing
chatel
ties
edmed
distort
##759
evidencing
##000148
086
lux
7475
cocraly
ccg
coleman
stagger
ehea
undetectable
rfe2
zem
theor
onwards
##iza
cr18
si41
trepan
geo
ce1−x
taa
##thanolamine
midpoint
hmt
ahmed
participates
##iscus
sanchez
dusting
amperometric
7ni
bank
ubi
wong
−45
##wu
##zinc
microalloyed
replication
##licated
supposing
simulates
lnc
756
##be0
hysitron
##linear
deepest
##1605000
perez
s0364591605000
s0364591605000970
cdi
uct
xmn
conacyt
##orene
mgc
underp
superfer
coarsens
si39
962
##cd2
innermost
seals
knight
exclusion
aligning
bmt
uchida
774
922
##×0
trid
1043
cu33
imide
moh
fulcher
profuse
shelled
rectangles
encounters
odfs
s092583889602
langu
layout
dictates
photomicrographs
perchlorate
alginate
0ni
gps
icc
jig
sang
xh2
atp
shaw
##onda
glis
bondcoat
gd1−x
##2460
pm3
##undo
972
2205
liber
boltzman
bsf
flocc
ladder
n00014
mits
nelson
qn
##t22
##æ°
cupd
si42
charts
microstruc
##uba
goodfellow
hfn
##895
vij
jcpdf
consumer
gh35
alsi9
##4904
ccc
dins
pbr
1044
zny
desulf
##feg
hf5
wayman
##iewicz
turbom
088
restraining
##diffraction
zj
zer
−a
##ayan
nbal3
21st
##459
##272
##prints
837
zeff
sweeps
destroying
my3
absorptance
aunps
companies
quasistatic
4t
e6
mumb
v8
##cular
##vc
as3
niu
nbmotaw
ample
cm200
mc3
feco2
##oyo
mesopore
lapl
manipulate
folded
mandrel
stagn
##ophosphates
3l
yes
##dar
##ch3
deciding
12mo
verlag
laun
pd50
ga16
s0013
752
guiding
electromagne
nfas
mqw
request
americium
benzyl
concomitantly
wdx
ma957
##hkl
cofeni
coso4
protium
cr25
1053
beck
##734
##asive
intral
multiples
staining
tls
irrecoverable
ignore
schneider
iupac
jou
k6
nad
tps
βzr
##wk
##±3
##asa
##size
expelled
zrcr
bruc
suggestive
polarizing
807
lnm
orthosilicate
reviewing
uncommon
happening
##×10−7
interferometry
predefined
mumbai
cay
hugh
pmax
zunger
astron
sph
fege
tih
inflex
barlat
0004
oppositely
##osil
2017yfb0
unload
nguy
resolving
fujian
decorating
africa
nitrophenol
8100
tiz
##×2
mext
spars
microindent
1143
drude
##737
nanocon
nanoperm
identically
s0042
##okes
s00223115173
##ochar
prolongation
##x1998x
albumin
asperity
cryomilled
s0927025611001522
bureau
s0022311509008502
s1044580397001344
nguyen
7ysz
aam
kri
vdw
σdc
##×3
al45
compo
##akh
1065
##ystems
##alling
newman
757
nicof
cosb
6700
takeuchi
ivas
896
compensates
krf
##electrode
genesis
impinge
olive
cowley
s002230930400
backfilled
3w
l→
εc
##ªa
se6
sih
1850
3dom
fe36
44al
populate
anodising
equilibrate
stripped
limno2
folding
cstc
heteroatoms
uncontrolled
perfection
thermomechanically
831
hac
xco
xsn
xian
≤2
##itec
##itol
triaz
10gd
agitated
##1648
sbte
tinx
##999
##99x
recovering
##761
hexavalent
fgms
s1359645497004904
s03048853060110
unavailable
s0304885306011085
0a
bfg
fay
wg
xnb
μf
##i¬
##iers
coti
disorientation
tiy
imps
##ni9
domes
macrom
rt22
ensuing
##446
tnas
paramount
##tosis
determinant
alooh
biofilm
bursts
6x
6fe
l−
nde
zlw
∼22
alio
person
exped
thickened
smz
broaching
##af0
nicop
packets
kbh4
allotrop
mpea
conceived
x02022
sriv
uio
zsi
##cite
##rabi
al75
##tsp
enr
cardi
##vels
soot
overse
18°
ga17
swt
enclo
bolts
unexplo
s1044580
mapbbr3
2s2
baking
fon
fuch
rating
°g
λs
##gams
##mes
dish
gr23
##2020
##995
lithography
42crmo
validating
ipc
##c05
ruby
bzcy
bgas
s030488531830
superhydrophobicity
4li
8y
hsu
vy
##imura
shrou
phason
##atibilities
tiox
si47
disclinations
overt
ga1−
907
dtpa
redistrib
percol
##zyk
762
862
928
bvo
δγ
##tide
tive
reground
slim
cav
809
881
##cyj
digi
stern
garner
invalid
remediation
1ag
6f
6g
tweed
##bx
style
meh
suble
atomised
frits
thickest
##12a
polyimide
instable
cdf
subjects
scrutin
computers
rhombohedr
##bury
umat
pilling
returning
sensitizers
saturating
nicr2o4
s026130690900
decrepitation
2ce
5sb
dme
honi
tmo
αzr
μr
##614
##non
##al11
adam
pe16
subsets
20000
concludes
##291
utilising
postpon
∼120
quicker
cr3c2
correctness
gpi
duplicate
##acetamide
amalgams
incongruently
cain2
monazite
3s2
819
918
ccp
f8
κe
asx
reentr
##uta
10wt
widest
##liers
msb
##vania
galvanizing
computerized
shimizu
guangzhou
4294a
s0360319998000
polytechnical
unacceptable
6r
dres
lon
mental
ω4
##omial
chances
triton
##esta
zrfe2
default
crystallised
##607
##908
cbh
redistributed
nbs2
unpre
##ascular
dodecahedral
prohibited
contiguous
9th
i¥
pso
pps
rma
##ffe
10cu
1083
ti17
streaking
drum
pdc
fog
fock
δtad
##971
gsa
circularity
##metall
yamada
compliant
austrian
mitigated
refluxing
hertzian
methoxyethanol
8mo
gfs
βt
reapp
ni54
maz
1272
proposition
caf
ca8
##38g
##756
fe28
##658
packs
46°
calibrating
746
737
734
##arbonate
rmse
manipulating
unpinning
interferometer
eigenvalue
mexico
ecr
kz
mugh
pth
##si4
reo
##ild
siy
2090
300k
plateaux
941
progressing
hierarchy
khach
kuz
antisites
kelly
##olymers
metabol
algebraic
llo
nns
→β
##rof
ala€
requisite
microflow
clo4
scha
1−y
conforming
##rolidin
##hmw
##333425
s0925838818333425
p8
qx
q600
restrains
##amed
cufeo2
##score
solutioned
1951
##258
##br6
nanostructural
hoch
cf3
tsing
mathbf
##glas
dichlor
triethyl
s0079642503000379
dinsdale
a50
pir
ved
ºc
##itational
co23
1027
biot
1484
##hertz
pbwo4
adsorp
##645
advent
##655
apu
polymerized
888
deduction
s092583881730
revision
simplifies
tedious
761
817
dcr
npa
piec
##aceu
1955
si3n4
burnt
bilinear
familiar
habazaki
rationale
s00223115080045
michigan
deterministic
kapton
defocus
combustor
language
7100
decent
20zn
##ypt
precipitant
mn35
brava
cetyl
predel
barrel
pbz
##698
thirty
immune
campaign
centroid
##a¾®
bravais
847
926
d9
f10
mond
⩽0
##fed
##ebe
##usive
alu
##bstit
hein
22°
cultiv
mildly
temporarily
kanthal
afforded
s09270256110020
alumel
incompressible
mongolia
917
cic
hec
rha
rail
xct
##rac
conic
parstat
##amps
##utoyo
fe79
cuk
mgcu
etu
flapw
##649
darken
742
##ahara
cusbs2
isovalent
paramagnet
##x1996x
shuffle
##nbtatizr
cuzn5
bayesian
ductilities
retrogression
dd3
l7
uhmw
εf
ωcm
##isa
##chel
znmgo
eleven
mm−2
assured
opal
sn1−x
1560
33°
protonic
cfm
sfts
pbso4
gmaw
photovoltage
##orrosive
mughrabi
sop
s15
−80
feff
unve
concentrating
zr35
laur
modulating
37°
pycn
##695
ragone
instructive
kinematics
deliberately
6−
821
fibr
##esc
usable
seiz
ceases
##dry
094
irregularity
peclet
##useo
recalled
survived
tortu
876
877
jis
jag
pared
##a13
styrene
hey
rectification
occlu
##14000
crossref
adsorbs
o27
##2219
qualified
gbp
postulate
##hydraulic
747
sieving
exhaustive
pacs
imparts
nanodom
pourba
blistering
##orschung
uhmwpe
##bab
##s4
##nders
isomers
re0
whas
##icht
ni18
magic
glance
noncon
smc
millis
pdcl2
##796
##ewicz
periodical
burrs
937
psbs
conjugation
ergodic
nanofluid
telecommunication
nanofabrications
glissile
unexplored
4m
5mm
bhf
mzo
nalu
oq
s18
preheat
microarc
amen
leon
fitness
##788
dm3
hg3
attaching
claddings
semico
condenser
punching
ordinates
fecr2
spheroidized
ptrh
inoculant
infinitesimal
akin
hing
lips
stone
##opoulos
ag7
mechanos
##256
##8010
schl
##ylvania
##261
automaton
##acetone
s03048853173
gg
lso
niz
tained
δ1
##las
##ird
##sta
mn40
pdau
##coating
axed
bls
shears
33h2
s0022311514010
elastomers
fomt
ningbo
zsimp
4ag
a¥
dli
kem
sfo
tere
xh
œa
##eˆa
##ias
##esol
##itations
alox
##sie
chatter
ni59
scp
##ached
molded
##plane
doz
nearer
invented
ybx
##484
##281
986
workshop
832
liberation
laco5
s0965
154056
utmost
fujii
kingdom
madrid
s0042207x
fha
ttr
alf
##see
tration
si44
##30f
flue
nanoscaled
borane
968
peritectically
dispersity
schedules
##gamon
##acetylene
zlwk
pourbaix
mcp
pfs
##zentrum
##ales
acr
unaged
1255
hardest
carbothermic
growths
blasse
##297
##zr0
a319
elliptic
unevenly
risks
eulerian
refluxed
##auxetic
chi660e
chronoamperometric
824
ich
lpps
β3
βti
−b
##3e
##mons
10mn
favouring
hook
947
##bao
nrgo
##×10−8
compromised
6l
6100
baked
ruc
##matic
##sl
##jm
statically
##quer
hahn
intake
mg80
1287
posterior
0030
##806
mcn
887
v2o5
uncharged
colours
##voltage
reversals
jonscher
carcinogenic
1i
iff
ness
αfe
−p
##pur
##nps
##olly
##adate
fe100−x
er5
metad
7001f
labusch
schematics
04°
tipd
9700
771
urban
quasiperiodic
lani5−x
##uryan
bicuseo
s0022311509006
fgh95
scintillators
casio3
saccharin
2u
9ni
ggg
##lyp
whom
ph2
##omn
znmoo4
1122
1620
##171
lasr
insure
rho
##494
helix
##omposites
galling
stimulates
thios
preexisting
uncoupled
aƒ
eun
wy
∼19
##722
##xh
al17
coc
##add
##wetting
upgrad
1445
coey
domination
acidified
interstice
##696
journals
harada
cp2
injecting
inhomogeneously
ciencia
nanoflake
mitutoyo
##rogate
exotic
flemings
hht
##v4
in5
10ta
##reet
##ario
policy
ge30
english
ultramic
october
novelty
btc
withdrawing
truncation
ripples
gh3535
6v
814
d500
klu
ncf
##dx
##nard
##kon
sponding
mgti2
##dex
##det
1390
texas
ohno
recrystallize
slovak
6400
dwells
##alez
pw91
ferrimagnetism
trunks
lamgni4
sigmoid
nanometre
plowing
dresden
lbm
oj
ν1
10sn
##atile
pergamon
1315
bi25
srce
softens
catalys
##994
##be2
mvs−1
cosn2
mosaic
971
739
adjustments
##viness
rubidium
ellipsoids
sommerfeld
disilicide
govt
parametrization
competitiveness
s002627
hcho
##aturyan
alz
##os2
##amate
tracing
ti70
waviness
958
##oldt
ccm
2195
lacro3
pistons
wrinkles
pentahydrate
unrealistic
mc3t3
a−
snt
tasi
yni
##organic
alike
acf
moox
moiety
min−
defected
##ubo
759
cpc
lagao3
anticorrosive
grooved
scavenging
paragraphs
overseas
pilo
rco
−22
##911
##¬a
coater
expects
relied
depop
supposition
changsha
nauk
ni3nb
splash
839
picos
10−16
simplifications
sns4
thixofor
interferences
peculiarity
antiferromagnets
pharmaceu
ubiqu
091
1ta
fid
idr
j0
lup
lode
##mar
##wick
##asub
crv
2032
zncd
##ogenous
##762
koz
a€˜
feal3
nanocrystallite
pearlitic
astro
nanofluids
s002236970
overwhelming
844
puck
##mor
##œe
##isers
cozr
##chenko
1954
outlo
25ni
extruding
##fe8
flaking
wavelet
cfc
##architecture
##evin
penns
andersen
contributors
nephel
semicoherent
dani
fpl
f200
lod
pcr
qt
z3
##pds
##jq
##journal
stringer
peb
mn10
roi
##ferrite
localize
s2a
##382
envision
##chester
metalloids
aa5052
violent
kaufman
3×10
914
aachen
dross
hult
ksi
##523
##aned
regularities
superfine
nbos
br0
nucleants
rug
photocath
ss304
enrichments
fecon
rhombus
sakamoto
stannite
buffers
neuron
seizure
6w
829
867
bcp
hansen
nath
rosen
##ien
##atable
interrelated
seif
1026
si48
undam
nois
moul
1542
nonvol
richest
23°
##31a
octa
##277
clarke
nzfo
centim
damped
mvsce
lineshape
921
969
hak
kittel
miz
qiang
∼23
##bad
##upp
##oint
sts
anorg
entity
1038
1035
##unk
30°c
pdag
gasket
erc
fabrics
##854
86°
dz4
intensification
schwarz
topographies
gonzalez
staggered
nicofecr
nephelauxetic
974
gand
kot
rps
##∼0
##icted
##acle
proeng
ni56
accent
1113
##ttes
##656
metallk
736
voor
##d5b8
cpe1
vortices
intralayer
7800
reni
##bff
##trimethyl
we54
specie
slender
h2so4
7500
ultral
cdcl2
zhan
huan
nanofilms
mn36
gsf
rmf
debonded
arrives
strikingly
disadvantageous
mandatory
2hf
hox
mfc
≈5
coins
10°c
hydrotal
completes
ndh2
gdmg
multistage
sb11
antioxid
48°
scraps
nra
accommodates
irreversibly
##airage
elucidating
htsmas
photosensi
libraries
saunders
microbands
recherche
zsimpwin
ops
sart
ux
δi
∼24
##vr
##rene
al40
beer
##yshev
sphal
tries
tied
maed
30ta
6060
##ultz
0006
2000fx
galvanomagnetic
∼350
1−ν
talos
meniscus
micelle
magnetoresistivity
271598
aii
xpd
##kine
##ye
things
be0
re5
interch
prest
weber
sition
exco
auag
backside
03°
surrounds
marqu
894
1s−1
glycerin
perforated
hexamethylene
chatelier
khachaturyan
5180
8−x
o25
##fying
##a11
##−n
##levant
interlink
mnso4
pollu
sno3
crystallise
approximates
##597
faceting
741
electrometer
commences
##prot
pfn
1400°c
s0022311514001081
patient
intrusions
entangled
apfim
zaf
μeff
thsi2
##lout
##thy
mei
usrp
##wegian
pegs
becke
1940
##te4
1723
visibility
##757
ti2p
semiatin
936
ewf
##tetramine
sphalerite
822
842
rated
tpb
yh
##fk
##bel
##qi
phthal
prevalence
cans
##chun
ti55
##andi
ame
energ
underline
nb15
13b
##998
##766
feco3
justification
skeletons
arriving
compromising
mismatched
gravitational
undamaged
##dab
##uo3
##¢a
##¾a¾®
ni43
mnwo4
1590
##mov
oversized
amorphized
##fex
wearable
d024
mbf
##yclic
oils
lipss
metabolic
animals
b30
gac
gaz
pzn
tcc
xk
znt
σmax
##b10
##w10
##al0
sporad
afores
subsolidus
mn1−
roth
au4
991
##381
##769
##ewise
88dt
rietan
cameras
isomorphic
discrimination
synchronous
columbic
undistorted
pennsylvania
gly
ibm
jour
αe
##o8
##tible
al23
10aˆ
cuw
1155
na5
##ovich
##ca2
##1004
##aea
##ukawa
encirc
attempting
refractories
##d03d
ti6242
chengdu
gyromagnetic
##qvist
labeling
fugacity
0ti
1at
5sr
n°
##450
##ucle
spiro
heart
nbtizr
bii
newer
pbesol
957
delim
closeness
counteract
camno3
ryd
equivalents
testify
eurofer
5nd
raph
rij
ale
2048
arab
desir
zrti
902
hexrd
951
##487
scientif
prolongs
rfbr
sterile
nz30
dichalcogenides
yoon
cecu2
mediate
conglomer
topographical
ma956
proprietary
dozens
aforesaid
0b
hosp
shang
inciner
microorgan
agric
nbo4
##tani
##24x
sulfates
##896
##436
extremum
##666
##ertation
norwegian
##3715
lfmr
healed
ges6
portevin
degreasing
eclairage
wrote
asterisk
knoop
5800
a11
hco
s14
σf
∼55
##imagnetic
chern
##echt
calcite
butadiene
1359
noncol
binodal
responding
negativity
909
##491
##cu1
markings
##b28
6360
##ophot
revis
digit
rhea
upconver
reoriented
tasks
nonvolatile
kq
##si1
##ngg
anand
meters
entrain
opc
reportedly
##20160
dra
##23x
denti
##352
##axs
pvt
ldos
a390
713c
adaptation
synchronously
louis
sterilized
unpreced
piecewise
ubiquit
##lers
ally
reass
eva
mg70
##science
1198
##monot
##13x
24°
lasts
irrelevant
lmct
ae44
ngs
prostheses
##rovsky
##acetate
s135964542030
enforced
osmium
cobaltite
proxigram
aoki
nash
nisi2
−19
arl
50°c
braun
substituents
ticr
predominate
s13596454970027
thioacetamide
dodecahedron
##ihara
sicnws
hillocks
eccentr
flanagan
##rolidinone
crossrefsearch
e9
g11
hang
jy
ωt
##tising
tower
alsc
comply
##ff0
recession
prag
mmni4
##tep
topo
ende
cnr
absorbents
851
##432
sfmo
wars
llp
quadruple
ttb
favourably
b978
cupric
peratures
naphthal
diphenyl
electroluminescence
amenable
pharmaceutical
cult
mab
uco
##bco
reabsorption
si70
##ometal
pr1
1007
biasing
meanings
1720
ptco
srwo4
identifiable
tinisn
##ohn
magnetotransport
lpwc
sm2fe17
extrapolations
gathering
tssd
embrittled
rccas
reentrant
jg
pals
iny
conden
onion
ti16
##uche
poole
1117
##erson
cez
bulged
906
generalised
spherul
impediment
##df5
calibrations
complicates
multimodal
protonation
e2g
##8000914
insignificantly
s0167663608000914
piezomagnetic
polytechnic
outperform
massively
cres
dial
dpt
##3000
##ping
##oot
##0036
1049
##atites
reprocessing
1177
mo10
##havan
1570
robert
irt
s00207
##af3
cs4
methylimidaz
aircrafts
huber
unprecedented
4w
944
dome
gor
ried
β0
##forschung
shutter
ac02
mg63
##deg
typed
illustrations
thermography
roughened
##454
sulfid
ssf
##araman
plenum
unreasonable
##e¯
##b75
desal
1001
consid
16a
17r
hereby
tmx
##271
uppermost
i¼™i¼
spectrophotometry
tailing
thiol
a½±a
jacket
s0925838819348
2re
3li
gcn
zur
##980
##dj
##itomo
##logy
modular
si49
mg96
something
16si
designers
hp4
bcb
heteroepit
emphasised
dupon
bisb
denominator
s0168583x9700
endeav
2δ
9mo
c18
eab
j1
kane
lvd
ous
qq
##eˆ
##æµ
##entific
##alus
crtao4
ti51
mgn
cls
30min
synap
schiff
phosphorene
halos
narrows
army
unreli
iteratively
quadrilateral
divergent
murty
scraped
plentiful
skpfm
precondition
erroneous
891
gord
zie
##sx
##°a
amines
##lick
subsolvus
sinθ
15si
zr47
nanocarbon
##644
##791
##6910
reproduction
1950s
monovacancy
discipline
⋅2h2
bach
mayer
##6603
##owska
cancell
##omethane
1145
blt
metallkd
##hardt
osgood
herring
bowl
alsi12
burnup
winding
reversing
santa
obstruction
mouth
gulli
aa6111
motifs
##13a67
emanating
pivotal
nutrient
outlook
dsm
ecp
##itious
##rey
amf
maa
la1−
george
nanoscope
##ovascular
orthophosphate
adhesives
synergistically
s092702560
##cellent
recalling
decoupled
pemfc
##ocyanate
0nb
4wt
8gd
mie
pak
r9
wus
∼26
␣2
##40003
phous
crfeconi
gr24
##ophy
cortical
obstruct
mgag
respects
vacuo
37pb
tcos
081
acetal
hv10
dehydrate
gaasbi
extraordinarily
6246
antennas
##æ˜z
tortuosity
lbl
m10
m951
pound
−ρ
##alb
##roline
##ulk
##ariate
o2p
endure
resolutions
evaporates
psds
coooh
unknowns
punches
zhuang
prototypes
19746603
##d19d03d
##952f3f
##d5b8e5
gulliver
##13a67d5b8e5
19746603d19d03d
##952f3f13a67d5b8e5
19746603d19d03d952f3f13a67d5b8e5
1hf
2q
dor
n719
u5
##cross
phe
wein
seeking
erties
fluffy
baal4
##334
greenish
pans
herzer
luminance
servohydraulic
metallurgically
levitated
mukher
fresnel
kum
vz
##benzene
##m0
chad
##ponential
timn2
##aille
cmos
binomial
widens
sb6
tetrach
10−21
ramberg
implan
creases
channelling
y2o3
47°
tl9
bergman
##a449
suffering
arrival
graphitized
52100
physisorbed
##0005182
s0045782599002
s0029549310005182
werkstoff
pilot
hospital
s0045782599002108
c33
gig
jain
western
highscore
mg−1
##scan
boe
mn38
gof
glacial
bulges
dissertation
tetragon
phosphating
lambert
names
52°
h116
kuriyama
clathrates
s002606571630
srruo3
949
f82
lign
##cad
##element
##acao
asset
shaking
dihedral
nanode
##ynman
μm−1
suboxide
lamination
kα2
aa20
wrapping
nicralysi
chimie
skewed
nicuzn
dupont
3at
f11
lining
qa
##640
##oi
##wd
##actical
al19
##owicz
##ocyan
si54
sc16
ober
leb
1233
srf
termin
aa2219
9600
##cd0
56°
nsas
##proof
lfm
pileup
fgh40
nif4
aa5182
nedo
yg
##lass
##ello
15c
25si
brilli
colinet
rui
##whu
optima
uncut
##olarized
biochemical
portug
naclo4
hirth
gilbert
s10445803970014
livpo4
disease
supercomputer
lexcellent
##x15002
sachs
seventh
gcm
nut
rats
x6
##mag
##analytical
be22
microch
mgsn
unse
manchester
pba
pbht
27°
hybridisation
836
streaming
##domains
dulong
wako
s14715317020000
cancellation
0≤
fiss
uz
##cec
entit
10n
hew
mosi
zr41
1353
infers
ceh2
s0022460
##zn1
0008
thirds
ecb
##2006
spectrometric
##ggin
s00796425040003
s0022311510003715
##dwlrq
airfoils
diagnosis
bipyramidal
enzymatic
s016766361630
agsbte2
domestic
##x15002758
s0022460x15002758
s0079642504000349
l5
lema
wgb
γ3
γ´
##dfa
##g0
##elial
1141
recorder
embod
30s
pd10
examines
hf4
endothermal
##354
##cuo
##337
34°
##894
984
guides
olson
submicrometer
reservoirs
pocket
spacers
##odielectric
inflexion
4l
hase
p13
ascs
##chan
ti29
mmni5
1008
monoph
##17b
##taud
fe29
entails
cosine
946
##2004
##zzi
1−exp
accessory
fifteen
892
cient
lope
λex
##uro
##vm
##level
beach
##osov
crco
se7
##stry
systematical
3093
1483
polyacryl
universally
##linary
1101
interstitially
macrocyc
##536
s0079642504000
lumps
syntactic
s0079642504000490
1−2
3hf
lma
qms
microdiffraction
peek
compose
nb8
biases
liquated
##feo
nanoarchitecture
mlg
ivb
lifesp
carburisation
s00223115100025
##galvan
preparative
srinivasan
trepanning
##bstituted
8si
826
brow
##a¢
##210
##zst
##v3
inal
matters
##new
cua
si52
mgf
superb
steph
14a
npo2
needleman
recognizable
percents
hamilton
stereological
s00223115110079
shunt
macrostructures
aliovalent
919
aub
hod
jh
nite
rmn6
theses
cosi2
##uru
##ag0
chic
1095
haf
accords
responds
sumitomo
b2g
mg2−x
##634
##astern
toughened
marm
hamburg
routines
disclose
hnt
rbf
sng
y9
−i
coble
crz
feynman
adp
diatom
speciation
systemically
##yph
cm4
##2029
nanoch
schultz
##707
s0043
##heater
##781
##a06
∼450
snse3
ptsn
prototyping
dull
mci
##420
##vhu
shaken
trime
fezr
formate
curling
##anges
overvoltage
lah2
##cluster
hexafluor
diluent
pnn
mpam
##iscip
capillarity
kramer
benzoquinone
r6g
christian
chakrab
naluf4
##feng
##mond
##hit
##zk
stab
##omy
##ab0
fetio3
sioc
##lung
mines
pratt
##css
##avan
al24
s1b
1sr
lmm
oster
quantifies
bilayered
january
triethanolamine
s1359645498003127
paradig
terephthal
0s
2γ
bacl2
bawo4
vie
yoo
asy
tradem
corning
preca
desy
pt5
##389
rud
26nb
lammps
peltier
restacking
robinson
micromechanisms
resolidified
byproducts
reorganization
trademark
gated
ymno3
σij
→1
##fcs
##idyl
reuse
##opolar
roell
zr11
##20170
photostability
paralleled
hybridize
specifies
hsa
bedworth
vascular
cemg
tife0
birth
senkov
alb12
##orius
eclip
tppo
crosslinking
porphyrin
dexter
2ag
lni
mds
ond
sect
∼27
##tched
##rh2
##␣al
##isable
atop
##agger
##ocally
atomisation
impedances
plasmas
##cb9
rrht
tisin
co17−x
dentistry
entitled
3sm
766
bfto
dcc
mng
vitrified
γ→
##pi
##izh
##sei
diame
et␣al
##uminous
##mo3
correlative
converters
hexabor
constructive
nonlinearly
kbt
##rho
suresh
predeformation
miniaturized
i¼i¼i¼
endows
univariant
tribofilm
multiplicative
hydrotalcite
unreliable
7f
bite
eoc
p42
v20
∂2
##622
##zko
##anta
si66
obu
superhard
gibson
statements
smm
pdcu
extru
gasification
##au2
##ringa
9500
heterophase
cuboct
corrector
cucro2
zrnisn
##r1a2
rigorously
trenches
microindentation
tasi2
hultgren
nha
ples
vat
−70
##712
##tinuous
mls
cdc
##0004
31°
wrap
assembl
10−19
##femnsi
isochron
refrigerators
##iazole
shuffling
brucite
acetaldehyde
9fe
eigh
jen
##bb0
##kumar
##⩽x
al2024
##oundaries
ni70
znti
##ynthes
semie
nb9
##609
2450
driver
##mgs
csz
ltm
radion
pcb
mn34
bicarbonate
reinvestig
intentional
846
mined
pag
γfe
##nell
##nov
##w1
##∼1
##ila
dekt
se1−x
outlines
confining
s0016
lawrence
##onics
martine
41°
##aa3
##aham
diges
odvhu
##80008
tssp
watts
piezoc
##akrish
7y
ccr
icr
iowa
lgs
vos
##cro
##875
as1
dihydrogen
##asser
mn7
gdco
misle
hfir
engaged
##cfs
6300
hg0
knock
rco2
bfn
reconstruct
4e−
##107000148
voxels
nanodots
cuprate
sorbent
s1751616107000148
eftem
s0022311510000735
s0022311509006837
bose
ida
lated
mpt
##eted
##ardi
stol
anr
##ops
sey
presume
mg−
electrocaloric
moe
signed
##aza
959
966
commence
micromach
augmentation
s1359646298004
microcubes
eigenvectors
opinions
sundman
obscure
kistler
seifert
lopez
bft
dol
gcr
∑i
##dm
thail
al84
plq
si60
movie
##cr5
5087
##859
000z
stained
tini0
johan
pipeline
##limited
cocrfenin
companion
escaping
collapses
jonas
zahner
thailand
1ce
7sn
mere
mug
ron
sons
microchemistry
surrogate
oxo
12h
composited
##856
rounding
##183129
robot
henry
dictate
e8m
hughes
nz30k
##ailletaud
dektak
6o
iic
iia
jam
lcb
miao
##fu
##a16
##577
##jh
##mpir
coga
ont
compl
seo4
indoor
unary
##ameters
tablet
ema
1680
##732
inductor
mull
insensitivity
nanoferrites
hfalo
substitutionally
pullout
wavevector
##ceptible
##955
hv1
imagine
##luoride
lbw
enveloped
discernable
projectiles
aggravated
jx
εt
toy
##ab2
crcl3
nih0
##astava
secm
1952
1005
bivalent
##azole
era
owned
phones
complication
unetched
nifs
triazine
cmp
catch
##fad
##¼a
##room
##quet
1088
si53
powdery
##meas
fernandez
##tta
##1571
sr8
fe2o3
tangents
quasib
duh
s0022311508006910
alcocrcufeni
##˜a½
terraces
rabb
korringa
pushes
biosensors
lukas
astroloy
radionucl
2z
8ta
bzo
cables
gir
hpl
lms
rtr
saz
γn
∼21
##i0
diaph
calls
1115
15a
mans
16°
17re
pt50
doesn
##858
orthotropic
nialhf
masking
polymorphous
linio2
cr2025
yunnan
austenitizing
hffe6
5l
cailletaud
y123
zpe
##sio
phs
matte
##ounded
sco
abab
##actor
testified
cafe2
affinities
balling
##595
reverted
tc21
balances
lsr
pcbm
##bf9
jetting
diverge
2124
5zn0
kubasch
surpasses
##sdorf
tsinghua
semiempir
5sc
7mg
ola
s2352
⋅h2
##lg
##²a
##ucr
##imen
##emi
1079
decides
geb
srso4
irradiance
##553
grinder
inhibitory
tangle
contemp
tisn
nipt
aminop
boosted
nordly
testifies
intensifies
noisy
6mn
cure
fbb8
ibr
lst
t−1
co14
cocatal
bep
crash
o3−
0075
flor
dy5
##453
metrop
viewpoints
cu27
macrographs
aggregations
##ika
inherit
bicrystals
appliances
lifespan
gut
vinc
xeds
−μ
inl
##uller
deoxygen
shun
shocks
dislo
incl3
gr26
diversi
unlimited
zral3
nb30
25cu
endo
aztec
neglects
predominated
s0925838800x
spongy
kern
superimposing
cspbcl3
prevailed
s000926140
2lih
agcuti
overshoot
a6061
cardiovascular
marquardt
−90
alni3
##owitz
##ithography
suda
interle
##10lv
##iep
0011
0015
##4010
timescale
##ovan
##imetic
tinicu
##455
##992
autonom
##×105
archard
interrupt
fisica
elevate
nanometres
0k
5°c
6wt
nq
→α
##ea0
##vette
solen
sc1−x
crystallo
15b
##phqw
##1352
subcritical
reflector
profession
engel
o21
27nb
apw
##786
ijk
densify
dbt
overpressure
cultures
karl
nanograined
mitigation
exemplary
ecci
microbial
desulfurization
4mg
##b50
##×4
##anova
tow
be12
cher
ac05
mg32
##weigh
1153
##ni7
plank
5097
multin
monod
polycarb
##anna
fe3−x
cdga2
epm
##897
##74x
deplete
constraining
##dc0
71073
ishikawa
microfiss
artefact
tsukuba
humboldt
aac
dorn
jang
tain
yama
##fet
##hb
reticular
##akawa
soy
phenanth
hfnbtatizr
##907
universita
msma
967
coordinations
illuminate
cgp
##hausen
dwds
thixotropic
destabilizing
facetted
biodegradability
oleate
intermixed
northwest
s026130690600
substantiate
s0079642598000036
wustite
##isciplinary
4140
841
e™
fidel
ymo
−23
##hell
##iod
##rep
##ac0
al48
##olt
##ithi
sump
##uet
##istan
quest
##lli
finland
##1111
nd1−x
basquin
complexities
##ylab
protuber
tinb2
##oresis
67°
controllers
znsb
##2009
parabola
t1g
##amento
unpolarized
713lc
private
deflections
searched
informative
azimuth
incongruent
##baco2
outgassing
##erent
##sider
allocated
mete
cu90
sct
keyence
22cr
broadness
invo4
tmb
54°
##cf0
thermoelectrics
##ikov
7150
nimh
##arboxylic
exchanging
##frame
##bilt
cass
hipping
pne
##nam
##bse2
microstress
si59
##stra
concentra
pav
blfo
transmitt
mesoc
packard
turbochar
sodiation
##pbo
kuhn
##relations
shields
footnot
agin5
microconstituents
aare
cin
iced
mbr
##utectoid
ti52
am30
##istant
##illary
slipped
##10a
morphologically
characterising
s3a
polyure
##000100
##499
##3100
elongate
creative
3700
zhs
ncn
institution
tsr
rsp
##yridine
##bf0
accessed
senior
vanderbilt
srceo3
ubiquitous
a²
fod
nfa
−21
##a˜
##tised
##aling
al−
conformed
stair
sta449
ono
sik
dept
regulations
methacrylate
soo
investigacion
overflow
creeping
##646
natures
magnetodielectric
##xton
rae
##787
fesn
##ophenol
bennett
kbn
duhem
ernicr
vastly
threads
sellars
disregistry
fleischer
racah
s0925838819348741
f82h
martinez
semiempirical
1r
geng
m12
niga
yni2
␣1
##iak
##urations
ate
proeutectic
acros
microphot
slid
diffusions
##tinct
caa
edit
minimised
stars
fe35
cfg
##1002
exothermicity
alignments
b3lyp
translate
madison
4πm
precipi
misleading
kubaschewski
5gd
gou
ihe
mnt
##national
phytic
adduct
adachi
ti47
sinking
functioning
brake
smt
annealings
complexed
cd1−
##fc0
biomedicine
encourages
loosening
camgsn
uniqueness
superscripts
desirability
bren
dpp
egy
hid
n18
riko
yal
∼28
##rg
##ois
##zones
##enk
tops
tey
methf
containment
1425
1610
thermite
multipl
terminating
interspersed
##linh2
1203
turbid
colorimetric
attenu
fecralloy
##230500
5754
tremendously
ecole
449c
historically
##odontic
ung
≈4
##x4
##wi
##arat
premix
solu
si67
elektron
strengthener
0012
nafeo2
macrocr
bmgc
cientific
boiled
akmc
##itschko
spacecr
nanocatalysts
pineau
nanoarrays
sparsely
dressing
yd
##71300
##isb
##elike
##trap
##olyb
feii
calcu
soi
cmcs
edged
pdcr
thermistors
blurred
multid
ba6
d0a
##682
automation
sandvik
hemolysis
brasses
unexposed
k465
n3−
se2−
humphre
admissible
historical
mens
mfs
qiao
αl
##c¨
##gap
##vert
acm
diox
unt
##istar
1131
ionizing
##azr
1830
##insky
b2→
randles
mcg
enriches
fecun
mutation
tetrahydro
osteogenic
acetylacetone
rosette
photodiodes
microorganisms
s2352179
3co
a286
æ°
ρi
##fund
##t14
inel
acryl
maier
1541
butoxide
emul
1343
terp
##1395
##azo
18f
nd9
associative
duced
autos
##letes
##784
individuals
planarity
tolerated
sexafs
bleaching
nembach
s002236971300
rappaz
exercise
s0927025611002059
s0022369713001571
1730
dγ
rum
##bands
##∼2
wha
exagger
ad730
cubi2
##strain
agzn3
1211
deta
25ti
brad
ge8
##ylation
intram
immm
##iously
##ahi
flowerlike
ramped
andersson
instituto
ellipses
diagnostics
nesting
xerogels
preclude
ourselves
naphthalene
hpa
omn
q0
vand
vitrification
´a
coms
##oux
te8
##essed
interionic
ni−
constancy
gev
4526
fe22
110°
permeabilities
incompatibilities
pyris
lenses
buckle
izumi
nanoneedle
ziman
stagnation
##osilane
noncollinear
condense
quasibinary
phenanthroline
hamper
mum
σ5
ω6
##del
##utive
##urrents
##oloration
aso4
exits
resting
me5
disassem
tiai
##illin
imf
substo
zno2
allvac
##aphosphate
##moo6
endotherm
##857
swan
correspondent
##4345
cfr
pvb
hg1−x
##ddd
rr20
tecs
miracle
hsla
bamoo4
patented
overlooked
a¯¹
prohibit
unpoled
e¦i¼
estrin
contempor
2ge
dω
fusing
ficti
jets
mch
∼34
##vec
ph3
strings
adf
si63
##endritic
leis
allg
##hatic
1510
1455
greer
coloring
##co1
actamat
neuro
attritor
cu28
interdig
##arboxyl
ni50−x
syng
reserve
cab6
disrupt
gettering
liv3
fibroblasts
##œ€ðœ€ð
hexamethylenetetramine
fidelity
transmittances
1a€
2160
lur
lth
tat
##bet
##bonding
##d11
##gler
##uff
##udi
##siveness
me2
##ad7
seo
haus
1213
mo20
loy
bi6
##1966
##hees
darkness
ncnt
##×104
commenced
hitperm
pgms
academia
dhkl
grooving
brandon
##galvanic
aix
fips
rost
tq
tid
xes
ymg
¨a
λem
␣3
##cab
##540
##rod
ism
##chell
fe100
1063
indore
processor
concord
200f
detectivity
40nb
antirefl
##ae0
insufficiently
incubator
readers
##rrr
sisfs
disconnected
aliquots
jerky
trichlor
pareto
uncorrelated
srivastava
bought
eric
j3
δδ
##e25
##kite
##s5
##al5
isra
##apb
1086
cups
cars
carter
equid
boch
clouds
monb
24h
flam
terminate
##458
##592
fluorolog
8972
##obenzene
ipg
alcoa
synergic
debit
chromatograph
rationally
gh4037
mmncs
laplace
raphson
ttip
xmg
ωτ
##fd0
##xc
##t20
##kv
##→m
##elung
alip
ist
forc
##osn
fez
caron
mechanic
##tetra
clue
nanocages
portr
tm0
##cience
##acycl
blockage
divides
sdp
gennes
nwpu
pseudocapacitor
linewidths
hatching
materiaux
s014211230500
antioxidant
e112
fing
lop
xα
yoshi
##cde
##t10
##u4
##i1
##orov
##osb
strange
1066
si57
sciss
depletes
##nton
##icki
conditional
aluminothermic
##ishment
##9073
o22
tmds
##496
##488
cfu
##ax19
centration
supercapacitive
predictor
fisch
bamg
αhυ
msmas
chiefly
gh2
m9
mii
αc
δω
##k−1
##roc
resists
##amis
##quid
##cha
havi
##lusions
1195
streams
[...]
